<pad>	0
<unk>	0
<s>	0
</s>	0
▁t	-0
he	-1
▁a	-2
▁i	-3
▁w	-4
ou	-5
▁the	-6
re	-7
on	-8
▁s	-9
in	-10
ha	-11
▁y	-12
▁c	-13
▁m	-14
er	-15
▁you	-16
▁o	-17
▁b	-18
nd	-19
▁d	-20
ing	-21
▁n	-22
▁f	-23
▁p	-24
ll	-25
▁g	-26
ed	-27
▁to	-28
or	-29
en	-30
ti	-31
hat	-32
▁of	-33
an	-34
le	-35
is	-36
es	-37
▁he	-38
▁and	-39
▁no	-40
ar	-41
om	-42
▁in	-43
it	-44
▁h	-45
▁we	-46
ve	-47
▁l	-48
▁-	-49
▁th	-50
..	-51
▁be	-52
▁ha	-53
▁e	-54
tion	-55
st	-56
▁u	-57
et	-58
▁re	-59
al	-60
▁it	-61
▁on	-62
ay	-63
ic	-64
▁is	-65
▁that	-66
ow	-67
ri	-68
▁go	-69
at	-70
▁what	-71
▁do	-72
as	-73
ver	-74
ro	-75
ent	-76
▁me	-77
ce	-78
id	-79
ation	-80
▁an	-81
gh	-82
ld	-83
im	-84
se	-85
▁k	-86
▁not	-87
ly	-88
out	-89
▁for	-90
ir	-91
...	-92
ght	-93
▁se	-94
ac	-95
▁this	-96
ome	-97
▁con	-98
▁have	-99
ho	-100
▁j	-101
▁st	-102
ter	-103
ke	-104
▁are	-105
▁your	-106
▁le	-107
▁my	-108
ra	-109
ith	-110
▁all	-111
ut	-112
▁as	-113
▁de	-114
▁so	-115
▁kn	-116
▁with	-117
▁there	-118
ad	-119
ill	-120
▁2	-121
▁was	-122
od	-123
▁ex	-124
▁pro	-125
▁know	-126
um	-127
ur	-128
▁1	-129
▁ne	-130
▁out	-131
op	-132
th	-133
uc	-134
▁ri	-135
▁tim	-136
am	-137
▁(	-138
ant	-139
her	-140
▁lo	-141
ould	-142
▁can	-143
ie	-144
pp	-145
ust	-146
▁don	-147
il	-148
ul	-149
▁up	-150
▁get	-151
▁whe	-152
ea	-153
ol	-154
han	-155
▁now	-156
▁they	-157
▁v	-158
all	-159
ure	-160
▁wor	-161
▁here	-162
▁them	-163
un	-164
ain	-165
▁li	-166
▁mo	-167
▁time	-168
ok	-169
▁r	-170
▁ab	-171
▁if	-172
▁un	-173
▁com	-174
▁right	-175
ec	-176
▁ac	-177
▁at	-178
▁sa	-179
▁her	-180
00	-181
ts	-182
ink	-183
▁but	-184
▁who	-185
▁want	-186
▁will	-187
ate	-188
ion	-189
ist	-190
hing	-191
▁any	-192
▁how	-193
▁see	-194
▁come	-195
▁well	-196
el	-197
us	-198
ble	-199
▁or	-200
ment	-201
▁him	-202
ak	-203
na	-204
end	-205
itt	-206
our	-207
rom	-208
very	-209
▁let	-210
▁just	-211
ry	-212
ss	-213
ack	-214
ake	-215
ven	-216
▁by	-217
▁fi	-218
▁ok	-219
▁sh	-220
ance	-221
ther	-222
▁his	-223
▁man	-224
ard	-225
art	-226
ers	-227
ous	-228
▁bo	-229
ally	-230
▁from	-231
▁than	-232
▁about	-233
▁think	-234
em	-235
qu	-236
and	-237
ast	-238
ess	-239
ine	-240
▁am	-241
▁us	-242
▁wh	-243
ings	-244
▁got	-245
▁yea	-246
▁like	-247
▁look	-248
▁some	-249
ong	-250
ort	-251
oun	-252
ren	-253
▁po	-254
▁did	-255
▁exp	-256
▁rep	-257
▁say	-258
▁good	-259
▁meet	-260
▁okay	-261
▁yeah	-262
▁where	-263
au	-264
fe	-265
ge	-266
ud	-267
ber	-268
ice	-269
ose	-270
▁sp	-271
▁had	-272
▁one	-273
▁work	-274
ig	-275
▁.	-276
ind	-277
ity	-278
one	-279
ord	-280
red	-281
▁en	-282
▁gu	-283
▁oh	-284
nder	-285
▁sec	-286
▁back	-287
ations	-288
ch	-289
ep	-290
os	-291
ub	-292
ide	-293
rou	-294
▁al	-295
▁ch	-296
▁fe	-297
▁pe	-298
▁ro	-299
ated	-300
onna	-301
▁ass	-302
▁she	-303
▁gonna	-304
▁inter	-305
ap	-306
ci	-307
ot	-308
to	-309
▁"	-310
ary	-311
ati	-312
for	-313
▁ad	-314
▁af	-315
▁fa	-316
▁sc	-317
ople	-318
▁bec	-319
▁cha	-320
▁god	-321
▁pre	-322
▁som	-323
▁yes	-324
▁comm	-325
▁cons	-326
▁cont	-327
▁need	-328
▁only	-329
▁when	-330
▁thank	-331
▁their	-332
▁people	-333
ue	-334
ame	-335
ase	-336
ass	-337
est	-338
ick	-339
ore	-340
til	-341
uch	-342
vel	-343
▁ag	-344
▁qu	-345
▁te	-346
ight	-347
vers	-348
▁200	-349
▁bel	-350
▁per	-351
▁rec	-352
▁coun	-353
▁make	-354
▁prov	-355
▁very	-356
ething	-357
▁could	-358
▁going	-359
▁those	-360
▁under	-361
▁would	-362
ational	-363
▁should	-364
▁something	-365
cy	-366
ia	-367
iz	-368
lf	-369
wo	-370
▁0	-371
▁5	-372
alk	-373
ect	-374
ful	-375
ive	-376
les	-377
lic	-378
ree	-379
ved	-380
ves	-381
▁cl	-382
▁pm	-383
eral	-384
ever	-385
ving	-386
▁cle	-387
▁hey	-388
▁may	-389
▁par	-390
▁sha	-391
▁sho	-392
▁way	-393
▁why	-394
ision	-395
ittle	-396
thing	-397
▁were	-398
▁every	-399
▁until	-400
▁little	-401
▁nothing	-402
."	-403
:5	-404
ab	-405
ck	-406
lp	-407
act	-408
duc	-409
ise	-410
iss	-411
ite	-412
ody	-413
ory	-414
own	-415
per	-416
ple	-417
uck	-418
▁19	-419
▁co	-420
▁di	-421
▁hi	-422
▁wr	-423
ause	-424
ited	-425
tain	-426
▁app	-427
▁bet	-428
▁boy	-429
▁ear	-430
▁mar	-431
▁two	-432
▁does	-433
▁hell	-434
▁help	-435
▁said	-436
eneral	-437
▁intern	-438
▁things	-439
ag	-440
ah	-441
ft	-442
lo	-443
mb	-444
we	-445
▁#	-446
▁3	-447
▁6	-448
ear	-449
gan	-450
ies	-451
iew	-452
ild	-453
int	-454
iti	-455
urn	-456
▁ca	-457
▁em	-458
▁fo	-459
▁ho	-460
▁ob	-461
▁tr	-462
able	-463
body	-464
ound	-465
ress	-466
▁car	-467
▁inc	-468
▁lea	-469
▁our	-470
▁pri	-471
erson	-472
lease	-473
velop	-474
▁been	-475
▁hand	-476
▁happ	-477
▁nice	-478
▁part	-479
▁talk	-480
▁after	-481
▁allah	-482
▁belie	-483
▁doing	-484
▁earth	-485
▁never	-486
▁other	-487
▁these	-488
▁thing	-489
▁really	-490
▁because	-491
▁develop	-492
:3	-493
dy	-494
ex	-495
ff	-496
ms	-497
og	-498
pt	-499
tu	-500
▁'	-501
▁4	-502
eci	-503
get	-504
hed	-505
irl	-506
ret	-507
umm	-508
way	-509
▁12	-510
▁ev	-511
▁gl	-512
▁jo	-513
▁la	-514
▁pr	-515
▁sm	-516
▁uh	-517
▁wa	-518
form	-519
ical	-520
ious	-521
irst	-522
ting	-523
▁acc	-524
▁che	-525
▁cre	-526
▁day	-527
▁del	-528
▁dis	-529
▁ent	-530
▁gra	-531
▁har	-532
▁hat	-533
▁its	-534
▁mer	-535
▁mon	-536
▁new	-537
▁off	-538
▁ser	-539
ident	-540
ments	-541
ought	-542
ution	-543
▁call	-544
▁cent	-545
▁chan	-546
▁fuck	-547
▁girl	-548
▁kill	-549
▁list	-550
▁mean	-551
▁miss	-552
▁more	-553
▁most	-554
▁much	-555
▁over	-556
▁again	-557
▁child	-558
▁clear	-559
▁count	-560
▁organ	-561
▁state	-562
▁three	-563
ication	-564
vention	-565
▁happen	-566
▁please	-567
▁proble	-568
▁anything	-569
▁provision	-570
▁international	-571
.1	-572
01	-573
:4	-574
hn	-575
pe	-576
ys	-577
▁,	-578
▁[	-579
ace	-580
age	-581
ail	-582
ath	-583
cil	-584
ile	-585
ish	-586
net	-587
ond	-588
ult	-589
upp	-590
yst	-591
▁ar	-592
▁br	-593
▁fl	-594
▁fu	-595
▁im	-596
▁ra	-597
duct	-598
fore	-599
ided	-600
ison	-601
mbly	-602
ning	-603
orry	-604
ouse	-605
ried	-606
what	-607
▁add	-608
▁ain	-609
▁bre	-610
▁fam	-611
▁fun	-612
▁gre	-613
▁hur	-614
▁ind	-615
▁isn	-616
▁mak	-617
▁pic	-618
▁rel	-619
▁rem	-620
▁res	-621
▁ter	-622
▁ver	-623
▁wom	-624
ative	-625
atter	-626
other	-627
rough	-628
ublic	-629
▁asse	-630
▁char	-631
▁expl	-632
▁feel	-633
▁find	-634
▁fine	-635
▁hear	-636
▁home	-637
▁left	-638
▁mess	-639
▁must	-640
▁pres	-641
▁stay	-642
▁summ	-643
▁supp	-644
▁sure	-645
▁take	-646
▁tell	-647
▁then	-648
▁wait	-649
▁bring	-650
▁doesn	-651
▁first	-652
▁house	-653
▁shoot	-654
▁sorry	-655
▁speci	-656
▁times	-657
▁wrong	-658
eration	-659
▁assist	-660
▁before	-661
▁coming	-662
▁report	-663
▁committ	-664
▁general	-665
▁meeting	-666
▁problem	-667
▁thought	-668
▁working	-669
▁assembly	-670
▁children	-671
▁happened	-672
▁whatever	-673
▁convention	-674
--	-675
/2	-676
:2	-677
cu	-678
ds	-679
ee	-680
hi	-681
lc	-682
mm	-683
ng	-684
ni	-685
▁+	-686
▁“	-687
ach	-688
ade	-689
amn	-690
ari	-691
bil	-692
cem	-693
ces	-694
con	-695
erg	-696
ffe	-697
ges	-698
ife	-699
inu	-700
iol	-701
lud	-702
ned	-703
nex	-704
orr	-705
ors	-706
pen	-707
pos	-708
tit	-709
ual	-710
ump	-711
uth	-712
▁10	-713
▁18	-714
▁bl	-715
▁dr	-716
▁gr	-717
▁id	-718
▁ke	-719
▁mr	-720
▁pl	-721
▁ru	-722
aced	-723
apon	-724
ards	-725
cept	-726
ence	-727
ency	-728
ined	-729
rent	-730
rian	-731
ries	-732
tice	-733
tive	-734
ture	-735
uman	-736
vant	-737
vern	-738
ying	-739
▁...	-740
▁201	-741
▁ang	-742
▁bab	-743
▁bak	-744
▁bro	-745
▁cer	-746
▁cur	-747
▁dec	-748
▁die	-749
▁end	-750
▁fig	-751
▁has	-752
▁ill	-753
▁inv	-754
▁met	-755
▁mom	-756
▁num	-757
▁old	-758
▁pea	-759
▁ref	-760
▁reg	-761
▁saw	-762
▁tak	-763
▁tec	-764
▁tom	-765
▁too	-766
▁tra	-767
▁won	-768
ather	-769
ities	-770
riend	-771
stand	-772
urity	-773
▁away	-774
▁bear	-775
▁both	-776
▁came	-777
▁conf	-778
▁damn	-779
▁died	-780
▁down	-781
▁fire	-782
▁four	-783
▁full	-784
▁hard	-785
▁head	-786
▁hold	-787
▁lord	-788
▁love	-789
▁many	-790
▁move	-791
▁open	-792
▁post	-793
▁such	-794
▁upon	-795
▁view	-796
▁welc	-797
▁year	-798
luding	-799
▁break	-800
▁class	-801
▁enter	-802
▁glass	-803
▁haven	-804
▁heard	-805
▁human	-806
▁knows	-807
▁leave	-808
▁night	-809
▁parti	-810
▁party	-811
▁remem	-812
▁repor	-813
▁shall	-814
▁sound	-815
▁story	-816
▁women	-817
ization	-818
olution	-819
▁better	-820
▁contro	-821
▁govern	-822
▁inform	-823
▁number	-824
▁person	-825
▁public	-826
▁record	-827
▁rivers	-828
▁secret	-829
▁weapon	-830
▁wouldn	-831
▁address	-832
▁another	-833
▁believe	-834
▁certain	-835
▁council	-836
▁nations	-837
▁picture	-838
▁special	-839
▁through	-840
▁security	-841
▁countries	-842
▁including	-843
▁assistance	-844
▁understand	-845
▁organization	-846
.'	-847
.9	-848
1,	-849
1.	-850
12	-851
93	-852
af	-853
be	-854
br	-855
by	-856
ct	-857
eg	-858
ek	-859
fi	-860
go	-861
io	-862
ip	-863
oh	-864
ph	-865
pl	-866
si	-867
te	-868
ug	-869
up	-870
wn	-871
xt	-872
ze	-873
▁9	-874
▁_	-875
als	-876
are	-877
arn	-878
cal	-879
cle	-880
cum	-881
day	-882
eed	-883
els	-884
ept	-885
ets	-886
gra	-887
his	-888
ich	-889
ily	-890
ird	-891
ols	-892
omm	-893
ote	-894
raw	-895
ray	-896
res	-897
rig	-898
ten	-899
tra	-900
uff	-901
ulf	-902
uly	-903
und	-904
whe	-905
yes	-906
you	-907
▁--	-908
▁23	-909
▁24	-910
▁ap	-911
▁bu	-912
▁er	-913
▁gi	-914
▁pa	-915
▁ph	-916
▁ty	-917
ails	-918
ared	-919
ason	-920
ater	-921
ates	-922
auti	-923
aven	-924
cess	-925
chan	-926
cuse	-927
eddy	-928
enni	-929
fied	-930
hara	-931
hell	-932
hool	-933
icti	-934
ions	-935
land	-936
less	-937
llow	-938
ness	-939
olog	-940
ones	-941
oney	-942
ower	-943
read	-944
side	-945
ters	-946
unch	-947
ured	-948
vate	-949
vice	-950
view	-951
▁bad	-952
▁bas	-953
▁cap	-954
▁cho	-955
▁cop	-956
▁cor	-957
▁dad	-958
▁enc	-959
▁few	-960
▁fin	-961
▁imp	-962
▁law	-963
▁lot	-964
▁ord	-965
▁pay	-966
▁pol	-967
▁por	-968
▁run	-969
▁sex	-970
▁sig	-971
▁sir	-972
▁sis	-973
▁sol	-974
▁son	-975
▁sou	-976
▁ste	-977
▁sti	-978
▁sub	-979
▁sur	-980
▁swe	-981
▁ton	-982
▁tot	-983
▁upd	-984
actly	-985
ained	-986
ances	-987
aster	-988
ected	-989
ieved	-990
itten	-991
oming	-992
roduc	-993
tions	-994
ulous	-995
where	-996
ystem	-997
▁2006	-998
▁2016	-999
▁actu	-1000
▁best	-1001
▁book	-1002
▁brou	-1003
▁care	-1004
▁coop	-1005
▁dead	-1006
▁ever	-1007
▁fact	-1008
▁fair	-1009
▁fulf	-1010
▁into	-1011
▁july	-1012
▁kept	-1013
▁last	-1014
▁made	-1015
▁mill	-1016
▁next	-1017
▁oper	-1018
▁ques	-1019
▁read	-1020
▁rele	-1021
▁requ	-1022
▁room	-1023
▁self	-1024
▁shak	-1025
▁sing	-1026
▁sout	-1027
▁told	-1028
▁turn	-1029
▁viol	-1030
▁wear	-1031
▁went	-1032
action	-1033
cember	-1034
ending	-1035
ennium	-1036
gether	-1037
haraoh	-1038
▁among	-1039
▁clean	-1040
▁const	-1041
▁death	-1042
▁emerg	-1043
▁grand	-1044
▁great	-1045
▁maybe	-1046
▁peace	-1047
▁spend	-1048
▁start	-1049
▁table	-1050
▁techn	-1051
▁teddy	-1052
▁tried	-1053
▁truth	-1054
▁victi	-1055
▁weird	-1056
▁worry	-1057
▁years	-1058
▁young	-1059
autiful	-1060
general	-1061
▁accord	-1062
▁chance	-1063
▁comple	-1064
▁consid	-1065
▁couldn	-1066
▁excuse	-1067
▁friend	-1068
▁guided	-1069
▁having	-1070
▁heaven	-1071
▁listen	-1072
▁matter	-1073
▁mother	-1074
▁propos	-1075
▁rights	-1076
▁saying	-1077
▁school	-1078
▁system	-1079
▁taking	-1080
▁united	-1081
▁wanted	-1082
entative	-1083
▁against	-1084
▁brought	-1085
▁captain	-1086
▁continu	-1087
▁control	-1088
▁current	-1089
▁exactly	-1090
▁private	-1091
▁reports	-1092
▁serious	-1093
▁talking	-1094
▁tonight	-1095
▁updated	-1096
▁waiting	-1097
▁welcome	-1098
▁without	-1099
▁actually	-1100
▁december	-1101
▁relevant	-1102
▁together	-1103
▁beautiful	-1104
▁believers	-1105
▁committee	-1106
▁emergency	-1107
▁president	-1108
▁secretary	-1109
▁everything	-1110
▁provisions	-1111
▁resolution	-1112
▁cooperation	-1113
▁development	-1114
▁information	-1115
),	-1116
).	-1117
):	-1118
//	-1119
/5	-1120
0,	-1121
11	-1122
16	-1123
17	-1124
19	-1125
21	-1126
5.	-1127
7,	-1128
86	-1129
9.	-1130
?"	-1131
bs	-1132
de	-1133
du	-1134
ew	-1135
ik	-1136
iv	-1137
jo	-1138
ma	-1139
no	-1140
ns	-1141
ny	-1142
oc	-1143
ps	-1144
sc	-1145
so	-1146
su	-1147
sw	-1148
sy	-1149
tp	-1150
zy	-1151
åä	-1152
▁!	-1153
▁$	-1154
▁8	-1155
▁x	-1156
▁°	-1157
▁♪	-1158
2:4	-1159
5:3	-1160
6:5	-1161
://	-1162
ans	-1163
aps	-1164
ars	-1165
ash	-1166
bel	-1167
bye	-1168
ced	-1169
cha	-1170
dam	-1171
den	-1172
eks	-1173
ene	-1174
eng	-1175
eps	-1176
ert	-1177
erv	-1178
ery	-1179
ese	-1180
hes	-1181
hic	-1182
irp	-1183
its	-1184
joy	-1185
kon	-1186
lan	-1187
led	-1188
ley	-1189
loy	-1190
lse	-1191
mes	-1192
mit	-1193
oci	-1194
ope	-1195
ows	-1196
pes	-1197
php	-1198
pro	-1199
ran	-1200
rat	-1201
rem	-1202
rew	-1203
rib	-1204
ric	-1205
rie	-1206
ril	-1207
ris	-1208
rit	-1209
ses	-1210
shi	-1211
ssi	-1212
tif	-1213
tiv	-1214
ttp	-1215
ubb	-1216
usb	-1217
usy	-1218
vis	-1219
xed	-1220
▁11	-1221
▁13	-1222
▁15	-1223
▁2,	-1224
▁25	-1225
▁28	-1226
▁31	-1227
▁4.	-1228
▁55	-1229
▁ed	-1230
▁ef	-1231
▁fr	-1232
▁ul	-1233
▁um	-1234
▁ur	-1235
▁ve	-1236
/200	-1237
ager	-1238
ains	-1239
anna	-1240
aria	-1241
aste	-1242
atim	-1243
ayed	-1244
back	-1245
cent	-1246
ched	-1247
cial	-1248
cked	-1249
duce	-1250
egal	-1251
ench	-1252
enna	-1253
fast	-1254
fect	-1255
ffee	-1256
ging	-1257
host	-1258
ides	-1259
imal	-1260
ince	-1261
ints	-1262
irtu	-1263
iver	-1264
ized	-1265
lder	-1266
lect	-1267
lend	-1268
lict	-1269
next	-1270
oint	-1271
omic	-1272
osed	-1273
ough	-1274
ount	-1275
ploy	-1276
pper	-1277
pter	-1278
rest	-1279
ross	-1280
self	-1281
sing	-1282
sion	-1283
swer	-1284
trem	-1285
ular	-1286
used	-1287
ward	-1288
ween	-1289
▁+21	-1290
▁100	-1291
▁198	-1292
▁act	-1293
▁aff	-1294
▁air	-1295
▁arm	-1296
▁ask	-1297
▁ast	-1298
▁att	-1299
▁bag	-1300
▁bir	-1301
▁ble	-1302
▁bri	-1303
▁bud	-1304
▁cal	-1305
▁col	-1306
▁cou	-1307
▁cut	-1308
▁det	-1309
▁dur	-1310
▁eat	-1311
▁ens	-1312
▁fav	-1313
▁gas	-1314
▁guy	-1315
▁hid	-1316
▁hmm	-1317
▁hot	-1318
▁ice	-1319
▁int	-1320
▁isp	-1321
▁jus	-1322
▁lau	-1323
▁lim	-1324
▁men	-1325
▁mil	-1326
▁min	-1327
▁mir	-1328
▁mor	-1329
▁opp	-1330
▁own	-1331
▁pig	-1332
▁psy	-1333
▁put	-1334
▁ris	-1335
▁rot	-1336
▁sam	-1337
▁sep	-1338
▁sit	-1339
▁tem	-1340
▁tes	-1341
▁try	-1342
▁use	-1343
▁usu	-1344
▁yet	-1345
arian	-1346
batim	-1347
endum	-1348
forts	-1349
forum	-1350
ghter	-1351
gramm	-1352
haust	-1353
hello	-1354
ickly	-1355
ified	-1356
illed	-1357
index	-1358
ining	-1359
isted	-1360
istry	-1361
ither	-1362
mbers	-1363
mical	-1364
ority	-1365
orrow	-1366
ortun	-1367
ourse	-1368
ouses	-1369
pared	-1370
rewed	-1371
rible	-1372
round	-1373
ulate	-1374
uring	-1375
venge	-1376
vious	-1377
yster	-1378
▁10:5	-1379
▁1993	-1380
▁acts	-1381
▁alan	-1382
▁also	-1383
▁babe	-1384
▁baby	-1385
▁bell	-1386
▁blue	-1387
▁burn	-1388
▁busy	-1389
▁butt	-1390
▁case	-1391
▁conc	-1392
▁cond	-1393
▁cops	-1394
▁craw	-1395
▁deal	-1396
▁didn	-1397
▁disg	-1398
▁dist	-1399
▁done	-1400
▁door	-1401
▁econ	-1402
▁educ	-1403
▁else	-1404
▁exce	-1405
▁eyes	-1406
▁face	-1407
▁flow	-1408
▁forn	-1409
▁give	-1410
▁glad	-1411
▁hair	-1412
▁half	-1413
▁hath	-1414
▁hole	-1415
▁hope	-1416
▁hour	-1417
▁http	-1418
▁hurt	-1419
▁husb	-1420
▁john	-1421
▁keep	-1422
▁land	-1423
▁life	-1424
▁lock	-1425
▁long	-1426
▁mach	-1427
▁maps	-1428
▁mind	-1429
▁name	-1430
▁news	-1431
▁nine	-1432
▁note	-1433
▁prom	-1434
▁pure	-1435
▁real	-1436
▁rece	-1437
▁rest	-1438
▁rise	-1439
▁rock	-1440
▁rubb	-1441
▁rule	-1442
▁sail	-1443
▁sake	-1444
▁sand	-1445
▁seek	-1446
▁seem	-1447
▁sell	-1448
▁sess	-1449
▁shar	-1450
▁shot	-1451
▁sick	-1452
▁site	-1453
▁soul	-1454
▁stri	-1455
▁stud	-1456
▁teac	-1457
▁true	-1458
▁unto	-1459
▁used	-1460
▁vote	-1461
▁wake	-1462
▁walk	-1463
▁whom	-1464
▁wife	-1465
▁wine	-1466
bility	-1467
brance	-1468
chairp	-1469
cument	-1470
ducted	-1471
ection	-1472
ective	-1473
ically	-1474
isoned	-1475
ivered	-1476
lendar	-1477
ommend	-1478
ration	-1479
ressed	-1480
ritory	-1481
unchie	-1482
▁2006,	-1483
▁afric	-1484
▁agent	-1485
▁alive	-1486
▁along	-1487
▁annex	-1488
▁april	-1489
▁arran	-1490
▁close	-1491
▁comes	-1492
▁daddy	-1493
▁dance	-1494
▁delic	-1495
▁diffe	-1496
▁drink	-1497
▁ended	-1498
▁enjoy	-1499
▁event	-1500
▁exist	-1501
▁fairy	-1502
▁faith	-1503
▁famil	-1504
▁fault	-1505
▁fight	-1506
▁files	-1507
▁forms	-1508
▁funny	-1509
▁ghost	-1510
▁guard	-1511
▁guide	-1512
▁heart	-1513
▁hello	-1514
▁honey	-1515
▁idols	-1516
▁indic	-1517
▁jenna	-1518
▁known	-1519
▁later	-1520
▁laure	-1521
▁least	-1522
▁light	-1523
▁lives	-1524
▁lower	-1525
▁makes	-1526
▁merci	-1527
▁mercy	-1528
▁moses	-1529
▁needs	-1530
▁overc	-1531
▁parts	-1532
▁phone	-1533
▁point	-1534
▁possi	-1535
▁raise	-1536
▁recog	-1537
▁round	-1538
▁rules	-1539
▁saved	-1540
▁since	-1541
▁smart	-1542
▁steel	-1543
▁steps	-1544
▁still	-1545
▁sweet	-1546
▁tells	-1547
▁today	-1548
▁total	-1549
▁types	-1550
▁ultra	-1551
▁vehic	-1552
▁virtu	-1553
▁wanna	-1554
▁wants	-1555
▁weeks	-1556
▁which	-1557
▁while	-1558
▁whole	-1559
▁whose	-1560
▁words	-1561
cessary	-1562
itarian	-1563
ologies	-1564
roduced	-1565
▁accept	-1566
▁across	-1567
▁advice	-1568
▁angels	-1569
▁animal	-1570
▁answer	-1571
▁anyone	-1572
▁anyway	-1573
▁choice	-1574
▁coffee	-1575
▁commun	-1576
▁corrig	-1577
▁couple	-1578
▁eating	-1579
▁employ	-1580
▁enough	-1581
▁except	-1582
▁expend	-1583
▁famous	-1584
▁father	-1585
▁figure	-1586
▁folder	-1587
▁follow	-1588
▁giving	-1589
▁hearts	-1590
▁hiding	-1591
▁houses	-1592
▁import	-1593
▁indeed	-1594
▁inside	-1595
▁interp	-1596
▁joined	-1597
▁killed	-1598
▁leaves	-1599
▁letter	-1600
▁living	-1601
▁losing	-1602
▁master	-1603
▁nation	-1604
▁nobody	-1605
▁others	-1606
▁placed	-1607
▁posted	-1608
▁prison	-1609
▁proper	-1610
▁reason	-1611
▁repres	-1612
▁review	-1613
▁second	-1614
▁sexual	-1615
▁sister	-1616
▁solace	-1617
▁sounds	-1618
▁states	-1619
▁summit	-1620
▁testif	-1621
▁thanks	-1622
▁verily	-1623
▁worshi	-1624
ribution	-1625
▁account	-1626
▁amongst	-1627
▁anybody	-1628
▁appoint	-1629
▁between	-1630
▁brother	-1631
▁chapter	-1632
▁conduct	-1633
▁consult	-1634
▁convers	-1635
▁crawled	-1636
▁created	-1637
▁efforts	-1638
▁exhaust	-1639
▁explain	-1640
▁fucking	-1641
▁getting	-1642
▁glasses	-1643
▁goodbye	-1644
▁heavens	-1645
▁however	-1646
▁husband	-1647
▁illegal	-1648
▁justice	-1649
▁limited	-1650
▁looking	-1651
▁machine	-1652
▁manager	-1653
▁members	-1654
▁messeng	-1655
▁morning	-1656
▁parties	-1657
▁perfect	-1658
▁pharaoh	-1659
▁present	-1660
▁produce	-1661
▁provide	-1662
▁quickly	-1663
▁regards	-1664
▁revenge	-1665
▁screwed	-1666
▁section	-1667
▁someone	-1668
▁summary	-1669
▁support	-1670
▁usually	-1671
▁victims	-1672
▁wayback	-1673
▁weapons	-1674
▁written	-1675
tremulous	-1676
▁abducted	-1677
▁becoming	-1678
▁calendar	-1679
▁chemical	-1680
▁conflict	-1681
▁constant	-1682
▁decision	-1683
▁document	-1684
▁duration	-1685
▁expected	-1686
▁internet	-1687
▁meetings	-1688
▁ministry	-1689
▁national	-1690
▁personal	-1691
▁prepared	-1692
▁previous	-1693
▁programm	-1694
▁question	-1695
▁remember	-1696
▁tomorrow	-1697
▁training	-1698
▁verbatim	-1699
▁violence	-1700
▁breakfast	-1701
▁certainly	-1702
▁committed	-1703
▁currently	-1704
▁delivered	-1705
▁education	-1706
▁everybody	-1707
▁expressed	-1708
▁fulfilled	-1709
▁necessary	-1710
▁proposals	-1711
▁recommend	-1712
▁territory	-1713
chairperson	-1714
▁accordance	-1715
▁classified	-1716
▁developing	-1717
▁government	-1718
▁introduced	-1719
▁millennium	-1720
▁operations	-1721
▁corrigendum	-1722
▁fornication	-1723
▁governments	-1724
▁remembrance	-1725
▁conversation	-1726
▁humanitarian	-1727
▁technologies	-1728
▁communication	-1729
▁consideration	-1730
▁consultations	-1731
▁representative	-1732
!"	-1733
!”	-1734
"?	-1735
%1	-1736
'!	-1737
'?	-1738
,6	-1739
-2	-1740
.,	-1741
.0	-1742
/3	-1743
/6	-1744
0/	-1745
02	-1746
07	-1747
1)	-1748
1/	-1749
14	-1750
2)	-1751
2,	-1752
2.	-1753
2/	-1754
26	-1755
3.	-1756
33	-1757
4)	-1758
4,	-1759
56	-1760
87	-1761
89	-1762
8:	-1763
91	-1764
98	-1765
:0	-1766
],	-1767
ax	-1768
bb	-1769
bi	-1770
bo	-1771
bt	-1772
co	-1773
dr	-1774
ey	-1775
gi	-1776
hm	-1777
ht	-1778
if	-1779
ii	-1780
ix	-1781
ja	-1782
kn	-1783
lm	-1784
me	-1785
ml	-1786
mo	-1787
mp	-1788
nt	-1789
of	-1790
ox	-1791
po	-1792
pu	-1793
ru	-1794
sp	-1795
tb	-1796
ty	-1797
uf	-1798
uh	-1799
uv	-1800
ww	-1801
xk	-1802
za	-1803
zz	-1804
àí	-1805
èö	-1806
íà	-1807
ïð	-1808
ñë	-1809
ñò	-1810
ón	-1811
”.	-1812
▁&	-1813
▁7	-1814
▁?	-1815
▁]	-1816
%1'	-1817
,00	-1818
,69	-1819
-11	-1820
.1,	-1821
00.	-1822
003	-1823
07)	-1824
0:3	-1825
1,6	-1826
1.3	-1827
1/2	-1828
11.	-1829
12)	-1830
146	-1831
1:4	-1832
2-2	-1833
268	-1834
2:2	-1835
3:4	-1836
4.1	-1837
4:5	-1838
56.	-1839
6.9	-1840
6/5	-1841
7/3	-1842
73.	-1843
:12	-1844
:16	-1845
:17	-1846
:20	-1847
:22	-1848
:28	-1849
:33	-1850
:38	-1851
:42	-1852
:51	-1853
:55	-1854
:57	-1855
aac	-1856
abl	-1857
aci	-1858
add	-1859
ady	-1860
aff	-1861
aid	-1862
air	-1863
ald	-1864
aln	-1865
ama	-1866
amb	-1867
ami	-1868
ana	-1869
ank	-1870
ano	-1871
aom	-1872
aos	-1873
apa	-1874
app	-1875
arb	-1876
arm	-1877
arr	-1878
ask	-1879
asm	-1880
asy	-1881
ato	-1882
atr	-1883
ats	-1884
aun	-1885
aus	-1886
ave	-1887
ays	-1888
bag	-1889
ban	-1890
bar	-1891
bat	-1892
bic	-1893
bid	-1894
big	-1895
can	-1896
cce	-1897
cho	-1898
chs	-1899
chy	-1900
cip	-1901
cis	-1902
cit	-1903
cra	-1904
cto	-1905
cur	-1906
cus	-1907
dep	-1908
dic	-1909
dio	-1910
dro	-1911
eak	-1912
ean	-1913
eat	-1914
eau	-1915
eav	-1916
edi	-1917
een	-1918
ees	-1919
ekb	-1920
ele	-1921
emy	-1922
eni	-1923
eor	-1924
epi	-1925
esp	-1926
eta	-1927
ete	-1928
eti	-1929
ews	-1930
fin	-1931
fth	-1932
fty	-1933
ghs	-1934
gic	-1935
gon	-1936
hab	-1937
had	-1938
ham	-1939
hea	-1940
htm	-1941
ian	-1942
iar	-1943
ico	-1944
ids	-1945
idy	-1946
ief	-1947
iet	-1948
ign	-1949
ike	-1950
iko	-1951
ila	-1952
ilf	-1953
ils	-1954
ime	-1955
ina	-1956
iod	-1957
ips	-1958
iqu	-1959
isi	-1960
isu	-1961
itc	-1962
izz	-1963
kay	-1964
key	-1965
kys	-1966
lds	-1967
leg	-1968
lem	-1969
ler	-1970
lex	-1971
lia	-1972
lig	-1973
log	-1974
lon	-1975
lyn	-1976
mer	-1977
min	-1978
mos	-1979
nah	-1980
nds	-1981
nen	-1982
niz	-1983
now	-1984
oke	-1985
omo	-1986
omy	-1987
ons	-1988
ood	-1989
opt	-1990
org	-1991
osi	-1992
oso	-1993
oss	-1994
oui	-1995
ove	-1996
oze	-1997
pal	-1998
pet	-1999
phi	-2000
put	-2001
ral	-2002
reg	-2003
rob	-2004
roe	-2005
ron	-2006
rop	-2007
ror	-2008
ruc	-2009
rum	-2010
sel	-2011
ser	-2012
set	-2013
sha	-2014
six	-2015
slm	-2016
spl	-2017
tan	-2018
tea	-2019
tel	-2020
tho	-2021
tis	-2022
toc	-2023
top	-2024
uba	-2025
ucy	-2026
ude	-2027
udw	-2028
uge	-2029
uja	-2030
uke	-2031
ule	-2032
ulg	-2033
ume	-2034
une	-2035
ung	-2036
unk	-2037
unr	-2038
urg	-2039
ush	-2040
usp	-2041
uts	-2042
vic	-2043
vir	-2044
wit	-2045
xts	-2046
èöó	-2047
ðàí	-2048
▁#1	-2049
▁06	-2050
▁14	-2051
▁16	-2052
▁2.	-2053
▁2?	-2054
▁3,	-2055
▁37	-2056
▁4,	-2057
▁5*	-2058
▁5,	-2059
▁50	-2060
▁6,	-2061
▁6.	-2062
▁7,	-2063
▁8,	-2064
▁:3	-2065
▁aw	-2066
▁bi	-2067
▁cr	-2068
▁cy	-2069
▁ea	-2070
▁ee	-2071
▁ep	-2072
▁ir	-2073
▁km	-2074
▁mm	-2075
▁nu	-2076
▁ol	-2077
▁os	-2078
▁ov	-2079
▁ow	-2080
▁pi	-2081
▁sw	-2082
▁sy	-2083
▁tt	-2084
▁ya	-2085
▁íà	-2086
▁ïð	-2087
▁ñò	-2088
"...	-2089
,000	-2090
.1).	-2091
.92.	-2092
/233	-2093
/51.	-2094
/61/	-2095
0/11	-2096
00:0	-2097
0:35	-2098
122/	-2099
17.0	-2100
1991	-2101
1:49	-2102
2:25	-2103
2:42	-2104
2:48	-2105
3:43	-2106
4:54	-2107
5:38	-2108
6:50	-2109
6:53	-2110
87),	-2111
8:01	-2112
9.86	-2113
=146	-2114
=268	-2115
abin	-2116
abor	-2117
abri	-2118
aces	-2119
ache	-2120
acle	-2121
acon	-2122
adem	-2123
ador	-2124
afed	-2125
ages	-2126
airs	-2127
aled	-2128
alia	-2129
alth	-2130
alue	-2131
alys	-2132
amed	-2133
ancy	-2134
ands	-2135
anet	-2136
anic	-2137
aomi	-2138
arnt	-2139
arto	-2140
arty	-2141
arue	-2142
ased	-2143
atie	-2144
atio	-2145
ativ	-2146
atum	-2147
atus	-2148
ayan	-2149
card	-2150
cean	-2151
chic	-2152
cies	-2153
cius	-2154
come	-2155
comm	-2156
conf	-2157
cont	-2158
coun	-2159
crap	-2160
ctly	-2161
cure	-2162
cury	-2163
date	-2164
dden	-2165
dges	-2166
dies	-2167
down	-2168
eapp	-2169
edia	-2170
eens	-2171
emns	-2172
enge	-2173
enia	-2174
ense	-2175
enti	-2176
erad	-2177
ergy	-2178
eria	-2179
esir	-2180
ests	-2181
esus	-2182
etie	-2183
eyed	-2184
face	-2185
fear	-2186
fess	-2187
ffic	-2188
file	-2189
gent	-2190
geth	-2191
ghed	-2192
good	-2193
goti	-2194
grap	-2195
half	-2196
hand	-2197
hani	-2198
head	-2199
hern	-2200
hers	-2201
hods	-2202
hole	-2203
hosp	-2204
hoto	-2205
icpe	-2206
idue	-2207
iece	-2208
ield	-2209
ieut	-2210
igil	-2211
ikom	-2212
ilar	-2213
inda	-2214
ines	-2215
inks	-2216
inue	-2217
ionn	-2218
ique	-2219
iran	-2220
ired	-2221
irut	-2222
isal	-2223
ised	-2224
issu	-2225
itch	-2226
itis	-2227
ived	-2228
ject	-2229
keep	-2230
kind	-2231
lded	-2232
leep	-2233
lest	-2234
life	-2235
line	-2236
ling	-2237
lled	-2238
lood	-2239
look	-2240
loor	-2241
lter	-2242
meet	-2243
mitt	-2244
mley	-2245
more	-2246
most	-2247
nest	-2248
nets	-2249
news	-2250
noon	-2251
nors	-2252
odal	-2253
oded	-2254
olit	-2255
omed	-2256
ongs	-2257
only	-2258
ords	-2259
ossg	-2260
oubt	-2261
oura	-2262
oute	-2263
outh	-2264
owns	-2265
peti	-2266
phie	-2267
ping	-2268
pond	-2269
poor	-2270
pose	-2271
pped	-2272
pris	-2273
prot	-2274
ptem	-2275
quip	-2276
quit	-2277
ract	-2278
rael	-2279
rays	-2280
razy	-2281
reci	-2282
rely	-2283
resa	-2284
rete	-2285
rief	-2286
rist	-2287
rive	-2288
roll	-2289
rong	-2290
rors	-2291
roze	-2292
ster	-2293
stit	-2294
sued	-2295
sues	-2296
tial	-2297
ties	-2298
titu	-2299
told	-2300
turn	-2301
uded	-2302
udge	-2303
udio	-2304
uffl	-2305
uise	-2306
ulio	-2307
ulti	-2308
ummy	-2309
umpy	-2310
unde	-2311
unts	-2312
uper	-2313
upti	-2314
ures	-2315
uses	-2316
uted	-2317
utts	-2318
uvok	-2319
vera	-2320
vils	-2321
vive	-2322
wise	-2323
wood	-2324
year	-2325
yond	-2326
zyum	-2327
ñëåä	-2328
▁$93	-2329
▁(2)	-2330
▁+16	-2331
▁+19	-2332
▁12,	-2333
▁18.	-2334
▁2):	-2335
▁22,	-2336
▁23,	-2337
▁24,	-2338
▁25%	-2339
▁31,	-2340
▁4.5	-2341
▁500	-2342
▁689	-2343
▁902	-2344
▁ach	-2345
▁age	-2346
▁ago	-2347
▁aid	-2348
▁aug	-2349
▁bal	-2350
▁bes	-2351
▁big	-2352
▁bol	-2353
▁box	-2354
▁bye	-2355
▁cat	-2356
▁cir	-2357
▁cit	-2358
▁cri	-2359
▁dan	-2360
▁dau	-2361
▁den	-2362
▁dna	-2363
▁doc	-2364
▁dra	-2365
▁due	-2366
▁ecu	-2367
▁eff	-2368
▁emt	-2369
▁esp	-2370
▁est	-2371
▁evy	-2372
▁fay	-2373
▁fbi	-2374
▁fed	-2375
▁fir	-2376
▁fit	-2377
▁fox	-2378
▁fur	-2379
▁fut	-2380
▁gam	-2381
▁gar	-2382
▁gps	-2383
▁heh	-2384
▁hig	-2385
▁hon	-2386
▁hor	-2387
▁ins	-2388
▁jan	-2389
▁jem	-2390
▁jet	-2391
▁jim	-2392
▁ker	-2393
▁key	-2394
▁kip	-2395
▁led	-2396
▁loc	-2397
▁mic	-2398
▁mma	-2399
▁mrs	-2400
▁mus	-2401
▁nay	-2402
▁non	-2403
▁nor	-2404
▁obj	-2405
▁oil	-2406
▁ori	-2407
▁osc	-2408
▁oui	-2409
▁owe	-2410
▁pel	-2411
▁pin	-2412
▁pod	-2413
▁pug	-2414
▁pun	-2415
▁pur	-2416
▁ran	-2417
▁rev	-2418
▁rom	-2419
▁ron	-2420
▁rul	-2421
▁san	-2422
▁scr	-2423
▁sea	-2424
▁ses	-2425
▁set	-2426
▁sim	-2427
▁siv	-2428
▁six	-2429
▁suc	-2430
▁sud	-2431
▁tax	-2432
▁tor	-2433
▁tou	-2434
▁tow	-2435
▁toy	-2436
▁tue	-2437
▁unf	-2438
▁var	-2439
▁vel	-2440
▁vin	-2441
▁vis	-2442
▁voc	-2443
▁vou	-2444
▁wat	-2445
▁win	-2446
▁wis	-2447
▁wit	-2448
▁wow	-2449
▁www	-2450
▁xdr	-2451
▁xml	-2452
1,600	-2453
5:31)	-2454
6.99.	-2455
?"...	-2456
ablis	-2457
ached	-2458
acial	-2459
acies	-2460
adise	-2461
after	-2462
agine	-2463
aking	-2464
ality	-2465
ander	-2466
antly	-2467
apore	-2468
arbie	-2469
ariat	-2470
arner	-2471
aryng	-2472
assed	-2473
asure	-2474
ately	-2475
atoes	-2476
atory	-2477
atten	-2478
bbits	-2479
berra	-2480
berry	-2481
bicop	-2482
bilit	-2483
board	-2484
brity	-2485
cause	-2486
ching	-2487
cient	-2488
cises	-2489
cular	-2490
depth	-2491
eavor	-2492
eding	-2493
enage	-2494
enant	-2495
endnd	-2496
enius	-2497
eoric	-2498
epend	-2499
erned	-2500
feren	-2501
heard	-2502
heart	-2503
heast	-2504
holds	-2505
iable	-2506
icies	-2507
icked	-2508
icken	-2509
icole	-2510
ideos	-2511
igion	-2512
inary	-2513
inese	-2514
iness	-2515
inger	-2516
inian	-2517
inker	-2518
inned	-2519
integ	-2520
inued	-2521
iolog	-2522
ional	-2523
issed	-2524
isuse	-2525
itars	-2526
itary	-2527
itely	-2528
iture	-2529
known	-2530
leman	-2531
lfare	-2532
lined	-2533
llect	-2534
llent	-2535
lonen	-2536
maria	-2537
moses	-2538
mpion	-2539
ndler	-2540
nette	-2541
oking	-2542
oklyn	-2543
onder	-2544
onely	-2545
opted	-2546
oring	-2547
ortal	-2548
ortly	-2549
osive	-2550
ounce	-2551
oured	-2552
ously	-2553
place	-2554
plays	-2555
posal	-2556
ppers	-2557
pping	-2558
raham	-2559
raint	-2560
ratch	-2561
rator	-2562
ready	-2563
reets	-2564
reeze	-2565
rench	-2566
rency	-2567
rents	-2568
riano	-2569
right	-2570
risti	-2571
rivel	-2572
ronic	-2573
roups	-2574
scure	-2575
shall	-2576
sighs	-2577
sixth	-2578
split	-2579
stity	-2580
strum	-2581
those	-2582
ticle	-2583
times	-2584
topic	-2585
turns	-2586
uckle	-2587
udwig	-2588
ufact	-2589
umped	-2590
unned	-2591
until	-2592
using	-2593
verty	-2594
vests	-2595
vicea	-2596
viron	-2597
wails	-2598
▁'%1'	-2599
▁(12)	-2600
▁100%	-2601
▁1998	-2602
▁2009	-2603
▁2010	-2604
▁245.	-2605
▁250,	-2606
▁2:28	-2607
▁2:33	-2608
▁4-11	-2609
▁44.1	-2610
▁51.3	-2611
▁57/3	-2612
▁656.	-2613
▁673.	-2614
▁911.	-2615
▁abel	-2616
▁agen	-2617
▁alex	-2618
▁anem	-2619
▁anna	-2620
▁army	-2621
▁asia	-2622
▁auth	-2623
▁bags	-2624
▁bako	-2625
▁beam	-2626
▁belt	-2627
▁blew	-2628
▁body	-2629
▁bone	-2630
▁boss	-2631
▁boyf	-2632
▁boys	-2633
▁bulg	-2634
▁burg	-2635
▁buzz	-2636
▁calf	-2637
▁cele	-2638
▁clay	-2639
▁club	-2640
▁cold	-2641
▁corr	-2642
▁cute	-2643
▁days	-2644
▁deaf	-2645
▁dear	-2646
▁defe	-2647
▁dest	-2648
▁dick	-2649
▁dime	-2650
▁doll	-2651
▁dots	-2652
▁draw	-2653
▁drop	-2654
▁dump	-2655
▁each	-2656
▁east	-2657
▁easy	-2658
▁ecce	-2659
▁erad	-2660
▁eren	-2661
▁eric	-2662
▁even	-2663
▁evid	-2664
▁evil	-2665
▁exer	-2666
▁farm	-2667
▁fear	-2668
▁feed	-2669
▁fell	-2670
▁file	-2671
▁five	-2672
▁food	-2673
▁fool	-2674
▁fore	-2675
▁free	-2676
▁furn	-2677
▁gain	-2678
▁game	-2679
▁gate	-2680
▁gave	-2681
▁gene	-2682
▁gent	-2683
▁goes	-2684
▁goin	-2685
▁gone	-2686
▁guid	-2687
▁guys	-2688
▁hadn	-2689
▁hast	-2690
▁hate	-2691
▁heed	-2692
▁held	-2693
▁hide	-2694
▁high	-2695
▁homo	-2696
▁hors	-2697
▁hund	-2698
▁ibid	-2699
▁idea	-2700
▁impr	-2701
▁inte	-2702
▁jake	-2703
▁jasm	-2704
▁jean	-2705
▁jobs	-2706
▁join	-2707
▁juba	-2708
▁june	-2709
▁kaos	-2710
▁keys	-2711
▁kids	-2712
▁kind	-2713
▁king	-2714
▁knew	-2715
▁knox	-2716
▁lady	-2717
▁lame	-2718
▁lave	-2719
▁lead	-2720
▁less	-2721
▁lily	-2722
▁line	-2723
▁lucy	-2724
▁main	-2725
▁mako	-2726
▁mark	-2727
▁math	-2728
▁mike	-2729
▁milk	-2730
▁mitc	-2731
▁nail	-2732
▁nerv	-2733
▁nina	-2734
▁nope	-2735
▁nose	-2736
▁nour	-2737
▁octo	-2738
▁onto	-2739
▁ooze	-2740
▁orig	-2741
▁ours	-2742
▁pack	-2743
▁page	-2744
▁paid	-2745
▁pain	-2746
▁papa	-2747
▁park	-2748
▁past	-2749
▁patr	-2750
▁pers	-2751
▁pete	-2752
▁pile	-2753
▁pizz	-2754
▁poop	-2755
▁pork	-2756
▁porn	-2757
▁posi	-2758
▁prac	-2759
▁pret	-2760
▁prot	-2761
▁puke	-2762
▁rain	-2763
▁reha	-2764
▁rely	-2765
▁reza	-2766
▁rich	-2767
▁ride	-2768
▁ring	-2769
▁risk	-2770
▁road	-2771
▁role	-2772
▁rope	-2773
▁ross	-2774
▁safe	-2775
▁same	-2776
▁save	-2777
▁send	-2778
▁sent	-2779
▁sets	-2780
▁seve	-2781
▁sexy	-2782
▁shit	-2783
▁show	-2784
▁situ	-2785
▁skys	-2786
▁smug	-2787
▁soft	-2788
▁sold	-2789
▁song	-2790
▁sour	-2791
▁spot	-2792
▁stet	-2793
▁stop	-2794
▁stra	-2795
▁suck	-2796
▁sunr	-2797
▁susp	-2798
▁sust	-2799
▁tano	-2800
▁task	-2801
▁tech	-2802
▁thou	-2803
▁thus	-2804
▁tick	-2805
▁tidy	-2806
▁till	-2807
▁took	-2808
▁tool	-2809
▁town	-2810
▁toys	-2811
▁tree	-2812
▁trou	-2813
▁type	-2814
▁unit	-2815
▁vari	-2816
▁vows	-2817
▁waln	-2818
▁ward	-2819
▁warn	-2820
▁weak	-2821
▁wept	-2822
▁wewe	-2823
▁wide	-2824
▁wilf	-2825
▁wind	-2826
▁wish	-2827
▁wood	-2828
▁word	-2829
▁yank	-2830
▁yard	-2831
▁ïðåä	-2832
0/114)	-2833
1991),	-2834
2-2003	-2835
6/507)	-2836
=26886	-2837
abriel	-2838
ademic	-2839
alling	-2840
alysis	-2841
appear	-2842
arated	-2843
arrhea	-2844
astern	-2845
ateful	-2846
atives	-2847
atures	-2848
ayment	-2849
banese	-2850
barred	-2851
cealed	-2852
cedure	-2853
chants	-2854
cholog	-2855
cipate	-2856
citing	-2857
common	-2858
course	-2859
cumamb	-2860
dammit	-2861
eapple	-2862
ecting	-2863
epiest	-2864
ercial	-2865
father	-2866
fessor	-2867
forced	-2868
formed	-2869
giving	-2870
handed	-2871
hattan	-2872
hedule	-2873
hospit	-2874
hyster	-2875
idered	-2876
ilding	-2877
illate	-2878
isible	-2879
itical	-2880
itions	-2881
itting	-2882
iverse	-2883
koning	-2884
konnen	-2885
lected	-2886
lesley	-2887
llenge	-2888
locked	-2889
mavera	-2890
mitted	-2891
nesses	-2892
nition	-2893
nizing	-2894
ocated	-2895
orting	-2896
ounter	-2897
prises	-2898
puters	-2899
raints	-2900
raisal	-2901
rectly	-2902
rences	-2903
render	-2904
reters	-2905
rongly	-2906
ruited	-2907
selves	-2908
served	-2909
tained	-2910
terdam	-2911
terday	-2912
tioned	-2913
titles	-2914
titude	-2915
tocols	-2916
urance	-2917
uredly	-2918
vesdro	-2919
visual	-2920
ðàíèöó	-2921
▁(00:0	-2922
▁01:49	-2923
▁02:25	-2924
▁02:48	-2925
▁03:43	-2926
▁04:54	-2927
▁05:38	-2928
▁06:53	-2929
▁08:01	-2930
▁10:16	-2931
▁10:53	-2932
▁10:59	-2933
▁11:38	-2934
▁11:55	-2935
▁12:17	-2936
▁12:22	-2937
▁12:51	-2938
▁15:12	-2939
▁18:42	-2940
▁1985.	-2941
▁1993.	-2942
▁19:57	-2943
▁2000,	-2944
▁2001,	-2945
▁2004,	-2946
▁2007,	-2947
▁2016.	-2948
▁20:35	-2949
▁22:42	-2950
▁23:20	-2951
▁56:50	-2952
▁69.86	-2953
▁aayan	-2954
▁above	-2955
▁abuja	-2956
▁abund	-2957
▁activ	-2958
▁adult	-2959
▁ahead	-2960
▁alert	-2961
▁amber	-2962
▁amphi	-2963
▁angel	-2964
▁anger	-2965
▁appel	-2966
▁asked	-2967
▁audio	-2968
▁awful	-2969
▁backs	-2970
▁baked	-2971
▁bakol	-2972
▁based	-2973
▁basic	-2974
▁basis	-2975
▁beast	-2976
▁began	-2977
▁being	-2978
▁below	-2979
▁birds	-2980
▁birth	-2981
▁bitch	-2982
▁black	-2983
▁blade	-2984
▁blood	-2985
▁books	-2986
▁brian	-2987
▁cabin	-2988
▁calls	-2989
▁carry	-2990
▁carto	-2991
▁charm	-2992
▁check	-2993
▁chest	-2994
▁chief	-2995
▁click	-2996
▁colón	-2997
▁crash	-2998
▁crazy	-2999
▁cream	-3000
▁cuffl	-3001
▁cunts	-3002
▁cycle	-3003
▁defin	-3004
▁deleg	-3005
▁desir	-3006
▁diego	-3007
▁doubt	-3008
▁dread	-3009
▁drive	-3010
▁drunk	-3011
▁dying	-3012
▁elect	-3013
▁email	-3014
▁enemy	-3015
▁entry	-3016
▁equip	-3017
▁error	-3018
▁exten	-3019
▁extra	-3020
▁faced	-3021
▁faces	-3022
▁fancy	-3023
▁field	-3024
▁fifth	-3025
▁fifty	-3026
▁final	-3027
▁fired	-3028
▁fixed	-3029
▁floor	-3030
▁fluff	-3031
▁flung	-3032
▁flush	-3033
▁force	-3034
▁found	-3035
▁froze	-3036
▁funds	-3037
▁girls	-3038
▁given	-3039
▁goals	-3040
▁golan	-3041
▁grabs	-3042
▁grady	-3043
▁grass	-3044
▁greed	-3045
▁grief	-3046
▁grown	-3047
▁guess	-3048
▁happy	-3049
▁heads	-3050
▁helps	-3051
▁hiran	-3052
▁homic	-3053
▁hotel	-3054
▁hurry	-3055
▁imple	-3056
▁inhab	-3057
▁initi	-3058
▁input	-3059
▁irreg	-3060
▁isaac	-3061
▁itchy	-3062
▁izyum	-3063
▁jesus	-3064
▁judge	-3065
▁julio	-3066
▁katie	-3067
▁kings	-3068
▁knife	-3069
▁labor	-3070
▁leash	-3071
▁level	-3072
▁lieut	-3073
▁linda	-3074
▁lines	-3075
▁local	-3076
▁loved	-3077
▁lunch	-3078
▁lying	-3079
▁maker	-3080
▁makin	-3081
▁march	-3082
▁marcy	-3083
▁marry	-3084
▁marty	-3085
▁mason	-3086
▁means	-3087
▁media	-3088
▁metal	-3089
▁might	-3090
▁modal	-3091
▁month	-3092
▁moore	-3093
▁motiv	-3094
▁mouth	-3095
▁multi	-3096
▁mummy	-3097
▁mutts	-3098
▁named	-3099
▁naomi	-3100
▁nativ	-3101
▁nepal	-3102
▁nolan	-3103
▁obedi	-3104
▁oblig	-3105
▁ocean	-3106
▁offer	-3107
▁onset	-3108
▁osama	-3109
▁panic	-3110
▁patio	-3111
▁pears	-3112
▁photo	-3113
▁piece	-3114
▁piper	-3115
▁place	-3116
▁posts	-3117
▁poten	-3118
▁pride	-3119
▁print	-3120
▁prior	-3121
▁prove	-3122
▁quiet	-3123
▁quite	-3124
▁radio	-3125
▁rebel	-3126
▁ridic	-3127
▁river	-3128
▁rooms	-3129
▁route	-3130
▁satis	-3131
▁scene	-3132
▁seats	-3133
▁sense	-3134
▁seven	-3135
▁sharm	-3136
▁sharp	-3137
▁ships	-3138
▁shots	-3139
▁shows	-3140
▁signs	-3141
▁sleep	-3142
▁small	-3143
▁smile	-3144
▁solid	-3145
▁souls	-3146
▁south	-3147
▁speak	-3148
▁speed	-3149
▁spice	-3150
▁spoke	-3151
▁sport	-3152
▁staff	-3153
▁stick	-3154
▁stink	-3155
▁store	-3156
▁study	-3157
▁stuff	-3158
▁takes	-3159
▁taste	-3160
▁tatum	-3161
▁terms	-3162
▁texts	-3163
▁timor	-3164
▁track	-3165
▁tread	-3166
▁troll	-3167
▁tunde	-3168
▁tuvok	-3169
▁usual	-3170
▁value	-3171
▁verif	-3172
▁vigil	-3173
▁waste	-3174
▁water	-3175
▁waxed	-3176
▁wheat	-3177
▁white	-3178
▁whyte	-3179
▁woman	-3180
▁works	-3181
▁world	-3182
▁worst	-3183
▁worth	-3184
▁wrath	-3185
▁yards	-3186
▁yeast	-3187
▁yours	-3188
/2001/2	-3189
ainable	-3190
andionn	-3191
cessful	-3192
chsafed	-3193
council	-3194
crapers	-3195
cussion	-3196
ecially	-3197
ekbones	-3198
entical	-3199
eradish	-3200
estment	-3201
fearing	-3202
ference	-3203
fically	-3204
formity	-3205
gements	-3206
gotiate	-3207
ishment	-3208
isoning	-3209
keeping	-3210
mentary	-3211
munchie	-3212
ociated	-3213
ocities	-3214
odities	-3215
oliters	-3216
orrupti	-3217
osition	-3218
ourages	-3219
pharaoh	-3220
profile	-3221
ptember	-3222
reciate	-3223
ressing	-3224
riveled	-3225
ruction	-3226
through	-3227
tituted	-3228
umption	-3229
vantage	-3230
▁$6.99.	-3231
▁$93,69	-3232
▁55/233	-3233
▁55/51.	-3234
▁acquit	-3235
▁acting	-3236
▁affery	-3237
▁africa	-3238
▁almost	-3239
▁apolog	-3240
▁appear	-3241
▁apples	-3242
▁ariano	-3243
▁around	-3244
▁assume	-3245
▁astray	-3246
▁astrob	-3247
▁attend	-3248
▁bakery	-3249
▁barbie	-3250
▁beacon	-3251
▁become	-3252
▁behalf	-3253
▁beirut	-3254
▁beyond	-3255
▁bitten	-3256
▁breach	-3257
▁breeze	-3258
▁buckle	-3259
▁budget	-3260
▁burian	-3261
▁carrie	-3262
▁carved	-3263
▁caused	-3264
▁causes	-3265
▁centre	-3266
▁change	-3267
▁charge	-3268
▁choose	-3269
▁chords	-3270
▁christ	-3271
▁combat	-3272
▁commit	-3273
▁common	-3274
▁copies	-3275
▁course	-3276
▁crimes	-3277
▁devils	-3278
▁disbel	-3279
▁donald	-3280
▁donors	-3281
▁dragon	-3282
▁drowns	-3283
▁either	-3284
▁energy	-3285
▁ensure	-3286
▁exceed	-3287
▁expert	-3288
▁fairly	-3289
▁family	-3290
▁favour	-3291
▁fellow	-3292
▁finger	-3293
▁fitnah	-3294
▁forget	-3295
▁former	-3296
▁fought	-3297
▁fourth	-3298
▁france	-3299
▁french	-3300
▁fulfil	-3301
▁future	-3302
▁gamble	-3303
▁garage	-3304
▁garner	-3305
▁genius	-3306
▁grease	-3307
▁ground	-3308
▁groups	-3309
▁grumpy	-3310
▁guyana	-3311
▁harder	-3312
▁hatred	-3313
▁headed	-3314
▁higher	-3315
▁honour	-3316
▁hyster	-3317
▁illust	-3318
▁incite	-3319
▁invite	-3320
▁island	-3321
▁israel	-3322
▁issues	-3323
▁jumped	-3324
▁kermit	-3325
▁laryng	-3326
▁latter	-3327
▁laurel	-3328
▁learnt	-3329
▁likely	-3330
▁lonely	-3331
▁longer	-3332
▁looked	-3333
▁ludwig	-3334
▁manaus	-3335
▁mariko	-3336
▁mechan	-3337
▁mickey	-3338
▁missed	-3339
▁misuse	-3340
▁moment	-3341
▁moneta	-3342
▁monroe	-3343
▁montel	-3344
▁mortal	-3345
▁mostly	-3346
▁movers	-3347
▁muscle	-3348
▁myself	-3349
▁needed	-3350
▁nicole	-3351
▁notice	-3352
▁obeyed	-3353
▁office	-3354
▁oliver	-3355
▁orient	-3356
▁outwit	-3357
▁palest	-3358
▁passed	-3359
▁paying	-3360
▁peacem	-3361
▁pelvis	-3362
▁period	-3363
▁perpet	-3364
▁phoney	-3365
▁pissed	-3366
▁planet	-3367
▁points	-3368
▁polite	-3369
▁pounce	-3370
▁prayed	-3371
▁puglia	-3372
▁queens	-3373
▁quench	-3374
▁racial	-3375
▁raping	-3376
▁rather	-3377
▁refuge	-3378
▁render	-3379
▁repaid	-3380
▁reward	-3381
▁rising	-3382
▁rocket	-3383
▁rodden	-3384
▁ruling	-3385
▁sailor	-3386
▁sample	-3387
▁sandor	-3388
▁scared	-3389
▁seeing	-3390
▁serves	-3391
▁shaken	-3392
▁shakes	-3393
▁sheila	-3394
▁shower	-3395
▁signed	-3396
▁social	-3397
▁sophie	-3398
▁soured	-3399
▁stands	-3400
▁status	-3401
▁stench	-3402
▁stones	-3403
▁strays	-3404
▁strike	-3405
▁sudden	-3406
▁summer	-3407
▁supply	-3408
▁surely	-3409
▁swings	-3410
▁syrian	-3411
▁temper	-3412
▁temple	-3413
▁teresa	-3414
▁termin	-3415
▁thirst	-3416
▁tinker	-3417
▁traced	-3418
▁tragic	-3419
▁trying	-3420
▁turned	-3421
▁unchan	-3422
▁unikom	-3423
▁unless	-3424
▁unprot	-3425
▁urgent	-3426
▁urgeth	-3427
▁victim	-3428
▁videos	-3429
▁vision	-3430
▁visits	-3431
▁wealth	-3432
▁welded	-3433
▁wheels	-3434
▁willed	-3435
▁wishes	-3436
▁within	-3437
▁wonder	-3438
/61/122/	-3439
=14617.0	-3440
ablished	-3441
aporeans	-3442
bicopter	-3443
bilities	-3444
curement	-3445
ependent	-3446
erations	-3447
ervative	-3448
graphers	-3449
iologist	-3450
issuance	-3451
meetings	-3452
ortunity	-3453
petition	-3454
ristians	-3455
strument	-3456
tituency	-3457
▁(1991),	-3458
▁500,000	-3459
▁57/300.	-3460
▁abraham	-3461
▁actions	-3462
▁adopted	-3463
▁affairs	-3464
▁african	-3465
▁already	-3466
▁alright	-3467
▁ancient	-3468
▁anymore	-3469
▁armenia	-3470
▁article	-3471
▁asshole	-3472
▁balance	-3473
▁belongs	-3474
▁besides	-3475
▁betting	-3476
▁bolhani	-3477
▁bridges	-3478
▁brimley	-3479
▁buddies	-3480
▁burgers	-3481
▁burning	-3482
▁careful	-3483
▁central	-3484
▁changes	-3485
▁charges	-3486
▁charles	-3487
▁charter	-3488
▁checked	-3489
▁chicken	-3490
▁chinese	-3491
▁classes	-3492
▁clearly	-3493
▁collect	-3494
▁complex	-3495
▁confine	-3496
▁connors	-3497
▁consent	-3498
▁country	-3499
▁creates	-3500
▁dealing	-3501
▁decided	-3502
▁delarue	-3503
▁delayed	-3504
▁delight	-3505
▁deluded	-3506
▁denying	-3507
▁details	-3508
▁disgust	-3509
▁earnest	-3510
▁eastern	-3511
▁economy	-3512
▁ecuador	-3513
▁encased	-3514
▁ensured	-3515
▁entails	-3516
▁environ	-3517
▁evening	-3518
▁evident	-3519
▁exposed	-3520
▁factory	-3521
▁federal	-3522
▁feeling	-3523
▁figured	-3524
▁finally	-3525
▁finland	-3526
▁foreign	-3527
▁forward	-3528
▁friends	-3529
▁further	-3530
▁gabriel	-3531
▁guitars	-3532
▁hairnet	-3533
▁halonen	-3534
▁handbag	-3535
▁happens	-3536
▁hearing	-3537
▁herself	-3538
▁hobbits	-3539
▁hundred	-3540
▁hurling	-3541
▁hurting	-3542
▁illness	-3543
▁imagine	-3544
▁inatten	-3545
▁invited	-3546
▁jasmine	-3547
▁killing	-3548
▁knowing	-3549
▁laughed	-3550
▁laurent	-3551
▁leaving	-3552
▁locking	-3553
▁mankind	-3554
▁marcius	-3555
▁married	-3556
▁measure	-3557
▁mention	-3558
▁mercury	-3559
▁message	-3560
▁methods	-3561
▁million	-3562
▁miracle	-3563
▁mirrors	-3564
▁missing	-3565
▁mission	-3566
▁monique	-3567
▁neither	-3568
▁nervous	-3569
▁nourish	-3570
▁nuances	-3571
▁obscure	-3572
▁october	-3573
▁opening	-3574
▁ordains	-3575
▁origami	-3576
▁outcome	-3577
▁outside	-3578
▁ovulate	-3579
▁parable	-3580
▁parents	-3581
▁patrick	-3582
▁percent	-3583
▁portion	-3584
▁poverty	-3585
▁pricked	-3586
▁product	-3587
▁promote	-3588
▁propose	-3589
▁psychic	-3590
▁pursued	-3591
▁quality	-3592
▁reading	-3593
▁receive	-3594
▁records	-3595
▁recuper	-3596
▁refused	-3597
▁regions	-3598
▁reinteg	-3599
▁related	-3600
▁release	-3601
▁remains	-3602
▁request	-3603
▁residue	-3604
▁respond	-3605
▁returns	-3606
▁rightly	-3607
▁rubbing	-3608
▁rubbish	-3609
▁scatter	-3610
▁scratch	-3611
▁selling	-3612
▁service	-3613
▁session	-3614
▁shakers	-3615
▁shelter	-3616
▁shopped	-3617
▁shortly	-3618
▁signing	-3619
▁similar	-3620
▁smoking	-3621
▁somalia	-3622
▁sonnets	-3623
▁station	-3624
▁staying	-3625
▁streets	-3626
▁student	-3627
▁stunned	-3628
▁subject	-3629
▁sunrise	-3630
▁surface	-3631
▁survive	-3632
▁suspect	-3633
▁sweetie	-3634
▁systems	-3635
▁teaches	-3636
▁teenage	-3637
▁testify	-3638
▁thereby	-3639
▁thinned	-3640
▁tickets	-3641
▁torment	-3642
▁totally	-3643
▁touched	-3644
▁towards	-3645
▁traffic	-3646
▁trouble	-3647
▁turning	-3648
▁unheard	-3649
▁unknown	-3650
▁various	-3651
▁vehicle	-3652
▁vincent	-3653
▁walking	-3654
▁walnuts	-3655
▁watched	-3656
▁wearing	-3657
▁welfare	-3658
▁whoever	-3659
▁wilford	-3660
▁winning	-3661
▁worried	-3662
▁worship	-3663
▁wronged	-3664
▁yanking	-3665
▁younger	-3666
continued	-3667
mentation	-3668
retations	-3669
ributions	-3670
roductive	-3671
▁academic	-3672
▁accepted	-3673
▁accident	-3674
▁achieved	-3675
▁agencies	-3676
▁analysis	-3677
▁anemones	-3678
▁anywhere	-3679
▁attached	-3680
▁biennium	-3681
▁bleeding	-3682
▁brooklyn	-3683
▁building	-3684
▁bulgaria	-3685
▁canberra	-3686
▁cartoons	-3687
▁champion	-3688
▁chandler	-3689
▁channing	-3690
▁chastity	-3691
▁cleaning	-3692
▁coloring	-3693
▁concrete	-3694
▁condemns	-3695
▁confined	-3696
▁continue	-3697
▁contract	-3698
▁currency	-3699
▁daughter	-3700
▁deadline	-3701
▁dealings	-3702
▁defeated	-3703
▁delicate	-3704
▁desirous	-3705
▁diarrhea	-3706
▁disguise	-3707
▁disposal	-3708
▁dreadful	-3709
▁dumpster	-3710
▁eavesdro	-3711
▁economic	-3712
▁employee	-3713
▁endeavor	-3714
▁enforced	-3715
▁everyone	-3716
▁evidence	-3717
▁exciting	-3718
▁existing	-3719
▁exploded	-3720
▁familiar	-3721
▁families	-3722
▁favoured	-3723
▁feelings	-3724
▁figuring	-3725
▁fraction	-3726
▁grateful	-3727
▁guidance	-3728
▁harvests	-3729
▁homicide	-3730
▁horrible	-3731
▁incident	-3732
▁indicate	-3733
▁informal	-3734
▁inhospit	-3735
▁insisted	-3736
▁interest	-3737
▁laughter	-3738
▁lavender	-3739
▁lebanese	-3740
▁location	-3741
▁lockdown	-3742
▁manufact	-3743
▁marching	-3744
▁merciful	-3745
▁messages	-3746
▁meteoric	-3747
▁military	-3748
▁missions	-3749
▁mitchell	-3750
▁molesley	-3751
▁mustache	-3752
▁nativity	-3753
▁observed	-3754
▁obtained	-3755
▁ordained	-3756
▁ordinary	-3757
▁overcame	-3758
▁paradise	-3759
▁pictures	-3760
▁pizzeria	-3761
▁poisoned	-3762
▁policies	-3763
▁practice	-3764
▁priority	-3765
▁problems	-3766
▁promised	-3767
▁properly	-3768
▁proposed	-3769
▁provided	-3770
▁provides	-3771
▁publicly	-3772
▁reaction	-3773
▁received	-3774
▁recorded	-3775
▁refusing	-3776
▁regional	-3777
▁relative	-3778
▁reliable	-3779
▁relieved	-3780
▁religion	-3781
▁reported	-3782
▁republic	-3783
▁requests	-3784
▁required	-3785
▁reviewed	-3786
▁schedule	-3787
▁selfless	-3788
▁servicea	-3789
▁sesendnd	-3790
▁sessions	-3791
▁severest	-3792
▁shitting	-3793
▁shooting	-3794
▁somebody	-3795
▁southern	-3796
▁starting	-3797
▁stepping	-3798
▁straight	-3799
▁stripper	-3800
▁strongly	-3801
▁supposed	-3802
▁sweetest	-3803
▁teaching	-3804
▁terrible	-3805
▁thinking	-3806
▁thoughts	-3807
▁tomatoes	-3808
▁ultrabig	-3809
▁uncommon	-3810
▁unfortun	-3811
▁universe	-3812
▁vehicles	-3813
▁virtuoso	-3814
▁virtuous	-3815
▁warnings	-3816
▁weakness	-3817
▁weirding	-3818
▁welcomed	-3819
▁whenever	-3820
▁worrying	-3821
▁ñòðàíèöó	-3822
/2006/507)	-3823
bilitation	-3824
chological	-3825
hysterical	-3826
orruptible	-3827
▁1980/114)	-3828
▁2002-2003	-3829
▁abundance	-3830
▁according	-3831
▁advantage	-3832
▁afternoon	-3833
▁alexander	-3834
▁allocated	-3835
▁appalling	-3836
▁appointed	-3837
▁appraisal	-3838
▁arranging	-3839
▁assurance	-3840
▁assuredly	-3841
▁authority	-3842
▁beckoning	-3843
▁boyfriend	-3844
▁celebrity	-3845
▁challenge	-3846
▁circumamb	-3847
▁computers	-3848
▁concealed	-3849
▁concerned	-3850
▁contained	-3851
▁continued	-3852
▁correctly	-3853
▁countless	-3854
▁creatures	-3855
▁creepiest	-3856
▁cufflinks	-3857
▁detection	-3858
▁developed	-3859
▁different	-3860
▁disappear	-3861
▁effective	-3862
▁employees	-3863
▁encounter	-3864
▁equipment	-3865
▁excellent	-3866
▁exercises	-3867
▁expecting	-3868
▁expending	-3869
▁explained	-3870
▁explosive	-3871
▁extension	-3872
▁fairyland	-3873
▁fireplace	-3874
▁forgiving	-3875
▁furniture	-3876
▁gentleman	-3877
▁goddammit	-3878
▁gratitude	-3879
▁harkonnen	-3880
▁identical	-3881
▁indicated	-3882
▁inhabited	-3883
▁interview	-3884
▁invisible	-3885
▁irregular	-3886
▁jeannette	-3887
▁listening	-3888
▁manhattan	-3889
▁merchants	-3890
▁messenger	-3891
▁motivated	-3892
▁movements	-3893
▁negotiate	-3894
▁obedience	-3895
▁objective	-3896
▁offending	-3897
▁oscillate	-3898
▁otherwise	-3899
▁performed	-3900
▁persisted	-3901
▁pineapple	-3902
▁poisoning	-3903
▁political	-3904
▁potential	-3905
▁primavera	-3906
▁prisoners	-3907
▁privately	-3908
▁procedure	-3909
▁professor	-3910
▁programme	-3911
▁protocols	-3912
▁questions	-3913
▁recruited	-3914
▁reference	-3915
▁reflected	-3916
▁repayment	-3917
▁reporters	-3918
▁restraint	-3919
▁rotterdam	-3920
▁sanderson	-3921
▁satisfied	-3922
▁scrunchie	-3923
▁separated	-3924
▁september	-3925
▁seriously	-3926
▁shriveled	-3927
▁sincerely	-3928
▁sometimes	-3929
▁somewhere	-3930
▁southeast	-3931
▁statement	-3932
▁submitted	-3933
▁subtitles	-3934
▁surrender	-3935
▁technical	-3936
▁tentative	-3937
▁variances	-3938
▁vigilance	-3939
▁violation	-3940
▁weariness	-3941
▁witnesses	-3942
▁yesterday	-3943
/2001/287),	-3944
▁(00:05:31)	-3945
▁aboveboard	-3946
▁activities	-3947
▁apologized	-3948
▁appreciate	-3949
▁associated	-3950
▁cheekbones	-3951
▁christians	-3952
▁commercial	-3953
▁completing	-3954
▁conditions	-3955
▁conformity	-3956
▁considered	-3957
▁controlled	-3958
▁definitely	-3959
▁delegation	-3960
▁delicacies	-3961
▁discussion	-3962
▁distorting	-3963
▁electronic	-3964
▁encourages	-3965
▁especially	-3966
▁everywhere	-3967
▁importance	-3968
▁imprisoned	-3969
▁instrument	-3970
▁investment	-3971
▁laboratory	-3972
▁landlocked	-3973
▁laryngitis	-3974
▁lieutenant	-3975
▁mastercard	-3976
▁mechanical	-3977
▁messengers	-3978
▁modalities	-3979
▁opposition	-3980
▁overcoming	-3981
▁particular	-3982
▁picoliters	-3983
▁positioned	-3984
▁pretending	-3985
▁prevention	-3986
▁previously	-3987
▁programmes	-3988
▁protection	-3989
▁punishment	-3990
▁reasonable	-3991
▁revolution	-3992
▁ridiculous	-3993
▁romandionn	-3994
▁situations	-3995
▁successful	-3996
▁sweetheart	-3997
▁testifying	-3998
▁thereafter	-3999
▁unchanging	-4000
▁underlined	-4001
▁velocities	-4002
▁vocational	-4003
▁vouchsafed	-4004
▁yourselves	-4005
▁$93,691,600	-4006
▁classifieds	-4007
▁commodities	-4008
▁competition	-4009
▁constituted	-4010
▁constraints	-4011
▁consumption	-4012
▁destruction	-4013
▁differences	-4014
▁disbelieved	-4015
▁enterprises	-4016
▁eradication	-4017
▁established	-4018
▁grandfather	-4019
▁horseradish	-4020
▁importantly	-4021
▁inattentive	-4022
▁independent	-4023
▁initiatives	-4024
▁intercourse	-4025
▁obligations	-4026
▁operational	-4027
▁opportunity	-4028
▁orientation	-4029
▁palestinian	-4030
▁participate	-4031
▁peacemaking	-4032
▁perpetrator	-4033
▁possibility	-4034
▁procurement	-4035
▁provisional	-4036
▁recognition	-4037
▁recognizing	-4038
▁roddenberry	-4039
▁secretariat	-4040
▁skyscrapers	-4041
▁specialized	-4042
▁suppressing	-4043
▁sustainable	-4044
▁termination	-4045
▁unprotected	-4046
▁worshippers	-4047
▁appointments	-4048
▁arrangements	-4049
▁breakthrough	-4050
▁conservative	-4051
▁constituency	-4052
▁continuation	-4053
▁continuously	-4054
▁conventional	-4055
▁distribution	-4056
▁eavesdropper	-4057
▁environments	-4058
▁hysterically	-4059
▁illustration	-4060
▁inhospitable	-4061
▁interpreters	-4062
▁peacekeeping	-4063
▁recuperation	-4064
▁reproductive	-4065
▁singaporeans	-4066
▁specifically	-4067
▁verification	-4068
▁amphibicopter	-4069
▁complementary	-4070
▁contributions	-4071
▁documentation	-4072
▁incorruptible	-4073
▁manufacturing	-4074
▁photographers	-4075
▁possibilities	-4076
▁psychological	-4077
▁reintegration	-4078
▁unfortunately	-4079
▁astrobiologist	-4080
▁circumambulate	-4081
▁considerations	-4082
▁disappearances	-4083
▁implementation	-4084
▁recommendation	-4085
▁rehabilitation	-4086
▁serviceability	-4087
▁interpretations	-4088
▁recommendations	-4089
".	-4090
#1	-4091
$6	-4092
$9	-4093
'%	-4094
(0	-4095
(1	-4096
(2	-4097
+1	-4098
+2	-4099
,0	-4100
-1	-4101
.3	-4102
.5	-4103
.8	-4104
/1	-4105
0%	-4106
0.	-4107
03	-4108
04	-4109
05	-4110
06	-4111
08	-4112
09	-4113
0:	-4114
1'	-4115
10	-4116
13	-4117
15	-4118
18	-4119
1:	-4120
2-	-4121
20	-4122
22	-4123
23	-4124
24	-4125
25	-4126
28	-4127
2:	-4128
2?	-4129
3,	-4130
30	-4131
31	-4132
35	-4133
37	-4134
38	-4135
3:	-4136
4-	-4137
4.	-4138
42	-4139
43	-4140
44	-4141
45	-4142
46	-4143
48	-4144
49	-4145
4:	-4146
5%	-4147
5*	-4148
5,	-4149
5/	-4150
50	-4151
51	-4152
53	-4153
54	-4154
55	-4155
57	-4156
59	-4157
5:	-4158
6,	-4159
6.	-4160
6/	-4161
60	-4162
61	-4163
65	-4164
67	-4165
68	-4166
69	-4167
6:	-4168
7)	-4169
7.	-4170
7/	-4171
73	-4172
8,	-4173
8.	-4174
80	-4175
85	-4176
88	-4177
90	-4178
92	-4179
99	-4180
9:	-4181
:/	-4182
:1	-4183
=1	-4184
=2	-4185
aa	-4186
ae	-4187
ai	-4188
ao	-4189
av	-4190
aw	-4191
az	-4192
ba	-4193
bd	-4194
bj	-4195
bl	-4196
bm	-4197
bu	-4198
ca	-4199
cc	-4200
cl	-4201
cp	-4202
cq	-4203
cr	-4204
da	-4205
db	-4206
dd	-4207
df	-4208
dg	-4209
di	-4210
dl	-4211
dn	-4212
do	-4213
dv	-4214
dw	-4215
eb	-4216
ef	-4217
eh	-4218
ei	-4219
eo	-4220
eq	-4221
eu	-4222
ev	-4223
ez	-4224
fa	-4225
fb	-4226
fl	-4227
fo	-4228
fr	-4229
fu	-4230
fy	-4231
ga	-4232
gl	-4233
gn	-4234
gp	-4235
gr	-4236
gs	-4237
gu	-4238
gy	-4239
hp	-4240
hr	-4241
hs	-4242
hu	-4243
hy	-4244
ib	-4245
iq	-4246
iu	-4247
je	-4248
ji	-4249
ju	-4250
ka	-4251
kb	-4252
kd	-4253
kf	-4254
ki	-4255
kl	-4256
km	-4257
ko	-4258
ks	-4259
kt	-4260
ky	-4261
la	-4262
lg	-4263
lh	-4264
li	-4265
lk	-4266
ln	-4267
lr	-4268
ls	-4269
lt	-4270
lu	-4271
lv	-4272
ló	-4273
mi	-4274
mn	-4275
mr	-4276
mt	-4277
mu	-4278
my	-4279
nb	-4280
nc	-4281
ne	-4282
nf	-4283
nh	-4284
nj	-4285
nk	-4286
nl	-4287
nm	-4288
nn	-4289
np	-4290
nr	-4291
nu	-4292
nv	-4293
oa	-4294
ob	-4295
oe	-4296
oi	-4297
oo	-4298
ov	-4299
oy	-4300
oz	-4301
pa	-4302
pd	-4303
pi	-4304
pm	-4305
pr	-4306
py	-4307
rb	-4308
rc	-4309
rd	-4310
rf	-4311
rg	-4312
rh	-4313
rk	-4314
rl	-4315
rm	-4316
rn	-4317
rp	-4318
rr	-4319
rs	-4320
rt	-4321
rv	-4322
rw	-4323
sa	-4324
sb	-4325
sd	-4326
sf	-4327
sg	-4328
sh	-4329
sk	-4330
sl	-4331
sm	-4332
sn	-4333
sr	-4334
ta	-4335
tc	-4336
tl	-4337
tm	-4338
tn	-4339
tr	-4340
tt	-4341
tw	-4342
ua	-4343
ui	-4344
uj	-4345
uk	-4346
uo	-4347
uy	-4348
uz	-4349
va	-4350
vi	-4351
vo	-4352
vu	-4353
vy	-4354
wa	-4355
wf	-4356
wh	-4357
wi	-4358
wl	-4359
wr	-4360
ws	-4361
xa	-4362
xc	-4363
xd	-4364
xe	-4365
xh	-4366
xi	-4367
xm	-4368
xp	-4369
xu	-4370
xy	-4371
ya	-4372
yb	-4373
yc	-4374
ye	-4375
yf	-4376
yi	-4377
yl	-4378
ym	-4379
yn	-4380
yo	-4381
yp	-4382
yr	-4383
yt	-4384
yu	-4385
yw	-4386
zi	-4387
ëå	-4388
íè	-4389
ðà	-4390
ðå	-4391
òð	-4392
öó	-4393
▁:	-4394
▁q	-4395
▁í	-4396
▁ï	-4397
▁ñ	-4398
"..	-4399
$93	-4400
.1)	-4401
.86	-4402
.92	-4403
.99	-4404
/11	-4405
/12	-4406
/23	-4407
/28	-4408
/50	-4409
/61	-4410
00%	-4411
00,	-4412
000	-4413
001	-4414
002	-4415
004	-4416
006	-4417
007	-4418
009	-4419
00:	-4420
010	-4421
016	-4422
0:5	-4423
1),	-4424
114	-4425
122	-4426
17.	-4427
199	-4428
1:3	-4429
1:5	-4430
200	-4431
2:5	-4432
300	-4433
3:2	-4434
5/2	-4435
5/5	-4436
50,	-4437
500	-4438
51.	-4439
600	-4440
617	-4441
7),	-4442
85.	-4443
886	-4444
8:4	-4445
91,	-4446
93,	-4447
93.	-4448
9:5	-4449
:01	-4450
:25	-4451
:31	-4452
:35	-4453
:43	-4454
:48	-4455
:49	-4456
:50	-4457
:53	-4458
:54	-4459
:59	-4460
=14	-4461
=26	-4462
abe	-4463
aby	-4464
adf	-4465
adl	-4466
ads	-4467
ags	-4468
aha	-4469
ahe	-4470
ais	-4471
ait	-4472
akf	-4473
akn	-4474
ako	-4475
ale	-4476
alf	-4477
ali	-4478
alt	-4479
alu	-4480
aly	-4481
amm	-4482
amp	-4483
anb	-4484
anc	-4485
ane	-4486
ang	-4487
ani	-4488
ann	-4489
anu	-4490
any	-4491
apo	-4492
apt	-4493
ara	-4494
arc	-4495
ark	-4496
arl	-4497
aru	-4498
arv	-4499
asu	-4500
atc	-4501
att	-4502
atu	-4503
aug	-4504
aul	-4505
ayb	-4506
aym	-4507
bac	-4508
bed	-4509
bie	-4510
bin	-4511
bis	-4512
bit	-4513
bly	-4514
bod	-4515
bon	-4516
bor	-4517
bou	-4518
bra	-4519
bre	-4520
bri	-4521
bti	-4522
bul	-4523
cad	-4524
cam	-4525
car	-4526
cas	-4527
cat	-4528
cau	-4529
cei	-4530
cek	-4531
cen	-4532
cep	-4533
cer	-4534
che	-4535
cid	-4536
cif	-4537
ckd	-4538
col	-4539
com	-4540
cor	-4541
cou	-4542
cre	-4543
cro	-4544
cti	-4545
ctr	-4546
cul	-4547
dal	-4548
dan	-4549
dat	-4550
dea	-4551
ded	-4552
dem	-4553
der	-4554
des	-4555
dge	-4556
din	-4557
dis	-4558
dly	-4559
dol	-4560
don	-4561
dop	-4562
dor	-4563
dou	-4564
dow	-4565
dre	-4566
dul	-4567
eab	-4568
eac	-4569
eah	-4570
eal	-4571
eas	-4572
ece	-4573
ech	-4574
edd	-4575
ede	-4576
eds	-4577
edu	-4578
eel	-4579
eep	-4580
eet	-4581
egr	-4582
eha	-4583
ein	-4584
eit	-4585
eld	-4586
ell	-4587
elv	-4588
ely	-4589
emb	-4590
emn	-4591
emp	-4592
ems	-4593
ena	-4594
enb	-4595
enc	-4596
enf	-4597
enj	-4598
enn	-4599
ens	-4600
env	-4601
eny	-4602
eon	-4603
eop	-4604
eos	-4605
epp	-4606
era	-4607
erb	-4608
erc	-4609
erd	-4610
ere	-4611
erf	-4612
eri	-4613
erl	-4614
erm	-4615
ern	-4616
erp	-4617
err	-4618
esd	-4619
esi	-4620
esn	-4621
esu	-4622
eth	-4623
etr	-4624
ett	-4625
eut	-4626
eve	-4627
ext	-4628
eys	-4629
fac	-4630
fat	-4631
fec	-4632
fed	-4633
fee	-4634
fer	-4635
fes	-4636
ffl	-4637
fic	-4638
fil	-4639
fle	-4640
fou	-4641
fre	-4642
fri	-4643
fus	-4644
gal	-4645
gam	-4646
gar	-4647
ged	-4648
gel	-4649
gen	-4650
ger	-4651
ghe	-4652
gil	-4653
gin	-4654
gis	-4655
giz	-4656
gly	-4657
gre	-4658
gst	-4659
gul	-4660
gur	-4661
hai	-4662
hak	-4663
hal	-4664
hap	-4665
har	-4666
has	-4667
hau	-4668
hav	-4669
hec	-4670
hee	-4671
heh	-4672
hei	-4673
hel	-4674
hem	-4675
hen	-4676
hey	-4677
hib	-4678
hie	-4679
hin	-4680
hip	-4681
hit	-4682
hod	-4683
hoe	-4684
hol	-4685
hom	-4686
hon	-4687
hoo	-4688
hop	-4689
hor	-4690
hos	-4691
hot	-4692
hou	-4693
how	-4694
hre	-4695
hri	-4696
ial	-4697
iat	-4698
ica	-4699
ici	-4700
icl	-4701
icp	-4702
ict	-4703
icu	-4704
idn	-4705
idu	-4706
ied	-4707
ieg	-4708
ien	-4709
iev	-4710
ifi	-4711
igh	-4712
ili	-4713
ilk	-4714
imi	-4715
inc	-4716
ini	-4717
inl	-4718
inn	-4719
ins	-4720
ior	-4721
iou	-4722
ipp	-4723
ira	-4724
irc	-4725
ire	-4726
irn	-4727
irr	-4728
irs	-4729
irt	-4730
iru	-4731
iry	-4732
isa	-4733
isb	-4734
isc	-4735
isg	-4736
isk	-4737
isp	-4738
ita	-4739
itn	-4740
itu	-4741
ium	-4742
ius	-4743
jan	-4744
jas	-4745
jec	-4746
jen	-4747
jes	-4748
jet	-4749
jim	-4750
ked	-4751
kee	-4752
ken	-4753
ker	-4754
kes	-4755
ket	-4756
kid	-4757
kin	-4758
kle	-4759
kly	-4760
kol	-4761
kom	-4762
kth	-4763
lac	-4764
lad	-4765
lar	-4766
las	-4767
lat	-4768
lay	-4769
ldn	-4770
lea	-4771
leb	-4772
lec	-4773
lee	-4774
lef	-4775
len	-4776
let	-4777
lev	-4778
lew	-4779
lfa	-4780
lha	-4781
lid	-4782
lie	-4783
lin	-4784
lis	-4785
lit	-4786
lla	-4787
lle	-4788
lli	-4789
lln	-4790
llo	-4791
lls	-4792
llu	-4793
lly	-4794
lod	-4795
lop	-4796
lor	-4797
los	-4798
lou	-4799
low	-4800
lps	-4801
lre	-4802
lri	-4803
lti	-4804
lub	-4805
lue	-4806
lun	-4807
lus	-4808
mag	-4809
mak	-4810
mal	-4811
man	-4812
mar	-4813
mat	-4814
med	-4815
mem	-4816
men	-4817
mic	-4818
mis	-4819
mle	-4820
mme	-4821
mod	-4822
mok	-4823
mon	-4824
mor	-4825
mou	-4826
mul	-4827
mun	-4828
nal	-4829
nat	-4830
nce	-4831
nda	-4832
ndb	-4833
nde	-4834
ndf	-4835
ndi	-4836
ndl	-4837
ndn	-4838
ndo	-4839
ndu	-4840
ner	-4841
nes	-4842
new	-4843
nha	-4844
nhe	-4845
nic	-4846
nin	-4847
nis	-4848
nit	-4849
nle	-4850
nol	-4851
non	-4852
nor	-4853
nou	-4854
nti	-4855
nts	-4856
nut	-4857
oal	-4858
oar	-4859
ock	-4860
odb	-4861
odi	-4862
oes	-4863
ogn	-4864
oic	-4865
oin	-4866
ois	-4867
oks	-4868
old	-4869
ole	-4870
oli	-4871
oll	-4872
olo	-4873
olu	-4874
oló	-4875
oma	-4876
omb	-4877
omi	-4878
omp	-4879
oms	-4880
ona	-4881
onc	-4882
onf	-4883
oni	-4884
onl	-4885
onm	-4886
onn	-4887
ono	-4888
onr	-4889
ont	-4890
onv	-4891
ook	-4892
ool	-4893
oom	-4894
oon	-4895
oop	-4896
oor	-4897
opi	-4898
opm	-4899
ops	-4900
ora	-4901
orc	-4902
ori	-4903
ork	-4904
orl	-4905
orm	-4906
orn	-4907
oru	-4908
orw	-4909
ost	-4910
oth	-4911
oti	-4912
oub	-4913
ouc	-4914
oug	-4915
oul	-4916
oup	-4917
owe	-4918
par	-4919
pat	-4920
pay	-4921
pea	-4922
pec	-4923
ped	-4924
pha	-4925
phe	-4926
pic	-4927
pin	-4928
pit	-4929
plo	-4930
ply	-4931
pol	-4932
pon	-4933
por	-4934
pou	-4935
ppa	-4936
ppe	-4937
ppo	-4938
ppy	-4939
pra	-4940
pre	-4941
pri	-4942
pst	-4943
pth	-4944
pti	-4945
que	-4946
qui	-4947
rab	-4948
rac	-4949
rad	-4950
rae	-4951
raf	-4952
rag	-4953
rai	-4954
ram	-4955
rao	-4956
rap	-4957
ras	-4958
raz	-4959
rea	-4960
reb	-4961
rec	-4962
ref	-4963
reh	-4964
rei	-4965
rel	-4966
rep	-4967
req	-4968
rev	-4969
rez	-4970
rge	-4971
rhe	-4972
rid	-4973
rik	-4974
rim	-4975
rin	-4976
rip	-4977
riv	-4978
rle	-4979
rly	-4980
roa	-4981
roc	-4982
rod	-4983
rof	-4984
rog	-4985
rol	-4986
roo	-4987
ros	-4988
rot	-4989
rov	-4990
row	-4991
roz	-4992
rre	-4993
rse	-4994
rst	-4995
rth	-4996
rti	-4997
rue	-4998
rul	-4999
run	-5000
rut	-5001
saf	-5002
sal	-5003
sam	-5004
sar	-5005
sed	-5006
sem	-5007
sen	-5008
sfi	-5009
she	-5010
sho	-5011
sic	-5012
sid	-5013
sin	-5014
sis	-5015
sle	-5016
sly	-5017
sol	-5018
son	-5019
sor	-5020
sou	-5021
sse	-5022
ssg	-5023
sta	-5024
ste	-5025
sti	-5026
stl	-5027
str	-5028
sts	-5029
sul	-5030
sum	-5031
sur	-5032
syc	-5033
tac	-5034
tal	-5035
tar	-5036
tat	-5037
tay	-5038
tec	-5039
ted	-5040
tem	-5041
tes	-5042
tet	-5043
the	-5044
thr	-5045
tia	-5046
tib	-5047
tic	-5048
tie	-5049
tim	-5050
tin	-5051
tio	-5052
tle	-5053
tly	-5054
tog	-5055
ton	-5056
tor	-5057
tre	-5058
tri	-5059
tro	-5060
try	-5061
tud	-5062
tun	-5063
tur	-5064
tut	-5065
uad	-5066
uan	-5067
uar	-5068
ubj	-5069
ubl	-5070
ubm	-5071
ucc	-5072
uce	-5073
uct	-5074
udd	-5075
udg	-5076
udi	-5077
udy	-5078
ued	-5079
uen	-5080
ues	-5081
ugh	-5082
ugl	-5083
uic	-5084
uid	-5085
uis	-5086
uit	-5087
uli	-5088
ull	-5089
uma	-5090
umb	-5091
unc	-5092
unn	-5093
unt	-5094
uos	-5095
uou	-5096
urf	-5097
uri	-5098
url	-5099
urr	-5100
urs	-5101
urt	-5102
urv	-5103
ury	-5104
usc	-5105
use	-5106
uss	-5107
ute	-5108
uti	-5109
utt	-5110
utu	-5111
val	-5112
van	-5113
var	-5114
vat	-5115
veb	-5116
veh	-5117
vem	-5118
vid	-5119
vie	-5120
vil	-5121
vin	-5122
vit	-5123
vok	-5124
vol	-5125
vor	-5126
vou	-5127
vow	-5128
vul	-5129
war	-5130
wed	-5131
wee	-5132
wer	-5133
wha	-5134
wig	-5135
win	-5136
wis	-5137
xac	-5138
xce	-5139
xer	-5140
xha	-5141
xis	-5142
xth	-5143
yan	-5144
ych	-5145
yed	-5146
yee	-5147
yin	-5148
yon	-5149
ype	-5150
yri	-5151
ysc	-5152
yse	-5153
yth	-5154
yum	-5155
zed	-5156
zer	-5157
zin	-5158
àíè	-5159
ëåä	-5160
ðåä	-5161
ñòð	-5162
▁$6	-5163
▁'%	-5164
▁(0	-5165
▁(1	-5166
▁(2	-5167
▁+1	-5168
▁+2	-5169
▁..	-5170
▁01	-5171
▁02	-5172
▁03	-5173
▁04	-5174
▁05	-5175
▁08	-5176
▁2)	-5177
▁20	-5178
▁22	-5179
▁2:	-5180
▁4-	-5181
▁44	-5182
▁51	-5183
▁56	-5184
▁57	-5185
▁65	-5186
▁67	-5187
▁68	-5188
▁69	-5189
▁90	-5190
▁91	-5191
▁aa	-5192
▁ai	-5193
▁au	-5194
▁ba	-5195
▁ce	-5196
▁ci	-5197
▁cu	-5198
▁da	-5199
▁dn	-5200
▁du	-5201
▁dy	-5202
▁ec	-5203
▁el	-5204
▁eq	-5205
▁es	-5206
▁ey	-5207
▁fb	-5208
▁ga	-5209
▁ge	-5210
▁gh	-5211
▁gp	-5212
▁hm	-5213
▁ht	-5214
▁hu	-5215
▁hy	-5216
▁ib	-5217
▁ic	-5218
▁il	-5219
▁iz	-5220
▁ja	-5221
▁je	-5222
▁ju	-5223
▁ka	-5224
▁ki	-5225
▁lu	-5226
▁ly	-5227
▁ma	-5228
▁mi	-5229
▁mu	-5230
▁na	-5231
▁ni	-5232
▁oc	-5233
▁oi	-5234
▁oo	-5235
▁op	-5236
▁ot	-5237
▁ou	-5238
▁ps	-5239
▁pu	-5240
▁si	-5241
▁sk	-5242
▁sl	-5243
▁su	-5244
▁ta	-5245
▁ti	-5246
▁tu	-5247
▁tw	-5248
▁vi	-5249
▁vo	-5250
▁wi	-5251
▁wo	-5252
▁ww	-5253
▁xd	-5254
▁xm	-5255
▁ye	-5256
-200	-5257
.99.	-5258
/287	-5259
/300	-5260
/507	-5261
05:3	-5262
1/12	-5263
114)	-5264
5:31	-5265
91),	-5266
93,6	-5267
acks	-5268
acti	-5269
addy	-5270
aded	-5271
adic	-5272
adis	-5273
aina	-5274
aith	-5275
aked	-5276
aker	-5277
akes	-5278
akin	-5279
akol	-5280
akth	-5281
alan	-5282
alit	-5283
aliz	-5284
alls	-5285
amil	-5286
amou	-5287
andl	-5288
anes	-5289
ange	-5290
anit	-5291
aniz	-5292
anta	-5293
ants	-5294
arad	-5295
aran	-5296
arat	-5297
arch	-5298
arci	-5299
arcy	-5300
aren	-5301
arin	-5302
arly	-5303
arre	-5304
arri	-5305
arry	-5306
arth	-5307
arti	-5308
arts	-5309
aryn	-5310
asic	-5311
asis	-5312
assi	-5313
atch	-5314
atef	-5315
atem	-5316
athe	-5317
ator	-5318
aure	-5319
aver	-5320
aves	-5321
band	-5322
bati	-5323
bers	-5324
bing	-5325
biol	-5326
bish	-5327
bits	-5328
blem	-5329
bout	-5330
came	-5331
ceal	-5332
ceed	-5333
ceke	-5334
cell	-5335
cere	-5336
chie	-5337
cill	-5338
cite	-5339
citi	-5340
cket	-5341
cols	-5342
cord	-5343
cour	-5344
cret	-5345
cted	-5346
cuad	-5347
dain	-5348
damm	-5349
dent	-5350
ding	-5351
eace	-5352
ears	-5353
east	-5354
echn	-5355
ecif	-5356
ecti	-5357
eded	-5358
eder	-5359
educ	-5360
eing	-5361
elie	-5362
emic	-5363
emon	-5364
enan	-5365
enci	-5366
ends	-5367
ened	-5368
enem	-5369
ener	-5370
enou	-5371
enta	-5372
entr	-5373
ents	-5374
epth	-5375
erci	-5376
ercy	-5377
ered	-5378
eren	-5379
eric	-5380
erly	-5381
erms	-5382
erra	-5383
erri	-5384
erry	-5385
erst	-5386
esid	-5387
essa	-5388
essf	-5389
esta	-5390
esti	-5391
estr	-5392
etal	-5393
etec	-5394
etes	-5395
ethe	-5396
etho	-5397
fact	-5398
feat	-5399
fend	-5400
fery	-5401
ffec	-5402
ffor	-5403
fice	-5404
fill	-5405
fine	-5406
fing	-5407
flic	-5408
forc	-5409
ford	-5410
fort	-5411
fter	-5412
gain	-5413
gard	-5414
gend	-5415
gers	-5416
gher	-5417
ghts	-5418
gies	-5419
gine	-5420
gion	-5421
gist	-5422
giti	-5423
gure	-5424
gust	-5425
hair	-5426
hall	-5427
hang	-5428
hank	-5429
hann	-5430
hant	-5431
hate	-5432
hath	-5433
hatt	-5434
have	-5435
hear	-5436
heat	-5437
heck	-5438
hedu	-5439
heed	-5440
heil	-5441
here	-5442
herw	-5443
hest	-5444
hine	-5445
hipp	-5446
hitt	-5447
hnol	-5448
hoic	-5449
hold	-5450
holo	-5451
hone	-5452
hoot	-5453
hopp	-5454
hord	-5455
hose	-5456
hots	-5457
hout	-5458
hyst	-5459
iall	-5460
iate	-5461
ibil	-5462
ible	-5463
icac	-5464
ican	-5465
icat	-5466
icea	-5467
icid	-5468
icke	-5469
icle	-5470
icly	-5471
icol	-5472
icop	-5473
icul	-5474
idan	-5475
iden	-5476
ider	-5477
ient	-5478
iest	-5479
ieve	-5480
ilan	-5481
ilit	-5482
illi	-5483
ilor	-5484
imes	-5485
imil	-5486
imit	-5487
imor	-5488
inal	-5489
inar	-5490
inde	-5491
inea	-5492
inga	-5493
inin	-5494
inis	-5495
init	-5496
inly	-5497
inst	-5498
inte	-5499
iper	-5500
irac	-5501
irds	-5502
irls	-5503
irly	-5504
iron	-5505
irou	-5506
irth	-5507
ises	-5508
ishe	-5509
isit	-5510
isti	-5511
istr	-5512
itar	-5513
iter	-5514
ithe	-5515
itic	-5516
itna	-5517
itor	-5518
itte	-5519
iven	-5520
kely	-5521
kers	-5522
king	-5523
konn	-5524
lace	-5525
lack	-5526
lade	-5527
lain	-5528
lass	-5529
lati	-5530
lcom	-5531
ldre	-5532
lean	-5533
lear	-5534
leas	-5535
lebr	-5536
leed	-5537
leve	-5538
lfle	-5539
lick	-5540
link	-5541
live	-5542
llat	-5543
llec	-5544
llen	-5545
lock	-5546
long	-5547
lose	-5548
loye	-5549
ltra	-5550
lves	-5551
main	-5552
mall	-5553
mart	-5554
mary	-5555
mber	-5556
mend	-5557
mine	-5558
ming	-5559
mity	-5560
mmes	-5561
morr	-5562
mple	-5563
ndan	-5564
ndar	-5565
ndea	-5566
nded	-5567
nden	-5568
ndep	-5569
ndic	-5570
ndin	-5571
ndnd	-5572
ndor	-5573
ndre	-5574
ndum	-5575
nett	-5576
nger	-5577
nhat	-5578
nium	-5579
nown	-5580
nter	-5581
oard	-5582
ober	-5583
ogiz	-5584
ogni	-5585
oing	-5586
oked	-5587
okly	-5588
olen	-5589
olha	-5590
olic	-5591
olor	-5592
omal	-5593
oman	-5594
omeb	-5595
omen	-5596
omes	-5597
omet	-5598
omew	-5599
omis	-5600
onal	-5601
once	-5602
oned	-5603
onen	-5604
oner	-5605
onet	-5606
onic	-5607
onin	-5608
onom	-5609
onor	-5610
onou	-5611
onro	-5612
onst	-5613
onth	-5614
oons	-5615
oped	-5616
oper	-5617
opic	-5618
orat	-5619
orce	-5620
oric	-5621
orit	-5622
orld	-5623
orre	-5624
orri	-5625
orru	-5626
orst	-5627
orth	-5628
orti	-5629
orts	-5630
orum	-5631
osal	-5632
oses	-5633
otel	-5634
ouch	-5635
ounc	-5636
oure	-5637
ours	-5638
outc	-5639
outs	-5640
outw	-5641
over	-5642
pate	-5643
peci	-5644
pect	-5645
pend	-5646
pers	-5647
pher	-5648
pice	-5649
pion	-5650
play	-5651
plet	-5652
plex	-5653
plit	-5654
port	-5655
ppel	-5656
ppen	-5657
pple	-5658
pply	-5659
ppor	-5660
ppos	-5661
ppra	-5662
ppre	-5663
pret	-5664
prof	-5665
pted	-5666
qual	-5667
quen	-5668
ques	-5669
quic	-5670
rack	-5671
rady	-5672
raff	-5673
raha	-5674
rain	-5675
rais	-5676
ramm	-5677
rand	-5678
rang	-5679
raoh	-5680
rash	-5681
rass	-5682
rate	-5683
rati	-5684
rawl	-5685
reac	-5686
reak	-5687
ream	-5688
rean	-5689
reas	-5690
reat	-5691
rect	-5692
reed	-5693
reep	-5694
reet	-5695
reez	-5696
reha	-5697
reig	-5698
rein	-5699
rele	-5700
renc	-5701
rend	-5702
rget	-5703
rica	-5704
rick	-5705
riel	-5706
rien	-5707
righ	-5708
rike	-5709
ring	-5710
rink	-5711
rint	-5712
rior	-5713
ripp	-5714
rise	-5715
ritt	-5716
rity	-5717
rles	-5718
road	-5719
role	-5720
romo	-5721
rook	-5722
room	-5723
ropp	-5724
roup	-5725
rout	-5726
rove	-5727
rown	-5728
rreg	-5729
rter	-5730
rump	-5731
rves	-5732
sama	-5733
semb	-5734
sent	-5735
ship	-5736
sigh	-5737
sist	-5738
spit	-5739
ssed	-5740
stac	-5741
stan	-5742
sted	-5743
stem	-5744
stin	-5745
stly	-5746
stra	-5747
stro	-5748
sure	-5749
sych	-5750
tall	-5751
tant	-5752
tary	-5753
tect	-5754
tend	-5755
tens	-5756
terc	-5757
terd	-5758
tere	-5759
tern	-5760
terp	-5761
terv	-5762
tian	-5763
tiat	-5764
tici	-5765
tick	-5766
tify	-5767
till	-5768
tims	-5769
tinu	-5770
titi	-5771
tity	-5772
tles	-5773
trab	-5774
tter	-5775
tuen	-5776
tuos	-5777
uall	-5778
uard	-5779
ubti	-5780
uced	-5781
ucti	-5782
uess	-5783
ught	-5784
uild	-5785
ulat	-5786
ules	-5787
ulou	-5788
umam	-5789
unat	-5790
unic	-5791
unis	-5792
unit	-5793
unti	-5794
uous	-5795
uran	-5796
urel	-5797
urem	-5798
uren	-5799
urit	-5800
urns	-5801
urre	-5802
urry	-5803
ursu	-5804
usta	-5805
usti	-5806
ustr	-5807
uten	-5808
uter	-5809
vati	-5810
vebo	-5811
velo	-5812
vend	-5813
veng	-5814
vens	-5815
vent	-5816
verb	-5817
verc	-5818
vere	-5819
veri	-5820
vert	-5821
vesd	-5822
vest	-5823
vide	-5824
vite	-5825
viti	-5826
vity	-5827
vour	-5828
vous	-5829
wail	-5830
weet	-5831
wful	-5832
wing	-5833
xand	-5834
xual	-5835
ycle	-5836
ysis	-5837
zing	-5838
àíèö	-5839
ïðåä	-5840
▁'%1	-5841
▁(00	-5842
▁(12	-5843
▁(19	-5844
▁08:	-5845
▁10:	-5846
▁12:	-5847
▁15:	-5848
▁199	-5849
▁245	-5850
▁2:2	-5851
▁2:3	-5852
▁51.	-5853
▁656	-5854
▁69.	-5855
▁aay	-5856
▁abd	-5857
▁abe	-5858
▁abo	-5859
▁abu	-5860
▁acq	-5861
▁adv	-5862
▁afr	-5863
▁ahe	-5864
▁ale	-5865
▁ali	-5866
▁alm	-5867
▁als	-5868
▁amb	-5869
▁amp	-5870
▁anc	-5871
▁ane	-5872
▁ani	-5873
▁ann	-5874
▁ano	-5875
▁ans	-5876
▁ari	-5877
▁arr	-5878
▁asi	-5879
▁aud	-5880
▁aut	-5881
▁bac	-5882
▁bar	-5883
▁bea	-5884
▁bef	-5885
▁beg	-5886
▁bei	-5887
▁bey	-5888
▁bit	-5889
▁blo	-5890
▁bod	-5891
▁bon	-5892
▁buc	-5893
▁bul	-5894
▁bur	-5895
▁bus	-5896
▁buz	-5897
▁cab	-5898
▁cam	-5899
▁cas	-5900
▁cen	-5901
▁chi	-5902
▁chr	-5903
▁cof	-5904
▁cra	-5905
▁cun	-5906
▁dam	-5907
▁dea	-5908
▁def	-5909
▁des	-5910
▁dev	-5911
▁dic	-5912
▁dif	-5913
▁dim	-5914
▁dot	-5915
▁dou	-5916
▁dow	-5917
▁dre	-5918
▁dri	-5919
▁dro	-5920
▁dum	-5921
▁eac	-5922
▁eas	-5923
▁eit	-5924
▁ele	-5925
▁ema	-5926
▁emp	-5927
▁enf	-5928
▁enj	-5929
▁env	-5930
▁equ	-5931
▁ere	-5932
▁err	-5933
▁exc	-5934
▁ext	-5935
▁fac	-5936
▁fan	-5937
▁far	-5938
▁fat	-5939
▁fie	-5940
▁fif	-5941
▁fix	-5942
▁flo	-5943
▁flu	-5944
▁fou	-5945
▁fre	-5946
▁fri	-5947
▁fro	-5948
▁fuc	-5949
▁ful	-5950
▁gab	-5951
▁gat	-5952
▁gen	-5953
▁gho	-5954
▁gir	-5955
▁gol	-5956
▁gon	-5957
▁goo	-5958
▁gov	-5959
▁gri	-5960
▁hai	-5961
▁hal	-5962
▁hap	-5963
▁hav	-5964
▁hea	-5965
▁hel	-5966
▁hir	-5967
▁hob	-5968
▁hom	-5969
▁hop	-5970
▁hou	-5971
▁hum	-5972
▁hus	-5973
▁ina	-5974
▁inf	-5975
▁inh	-5976
▁ini	-5977
▁inp	-5978
▁isa	-5979
▁isl	-5980
▁isr	-5981
▁iss	-5982
▁itc	-5983
▁izy	-5984
▁jas	-5985
▁jen	-5986
▁jes	-5987
▁job	-5988
▁joh	-5989
▁jub	-5990
▁jud	-5991
▁jul	-5992
▁jum	-5993
▁jun	-5994
▁kep	-5995
▁kid	-5996
▁kin	-5997
▁kne	-5998
▁kni	-5999
▁kno	-6000
▁lab	-6001
▁lad	-6002
▁lam	-6003
▁lar	-6004
▁lat	-6005
▁leb	-6006
▁lef	-6007
▁les	-6008
▁lie	-6009
▁lif	-6010
▁lin	-6011
▁lis	-6012
▁lit	-6013
▁liv	-6014
▁lon	-6015
▁loo	-6016
▁lor	-6017
▁los	-6018
▁lov	-6019
▁low	-6020
▁luc	-6021
▁lud	-6022
▁lun	-6023
▁mac	-6024
▁mad	-6025
▁map	-6026
▁mas	-6027
▁mat	-6028
▁mec	-6029
▁med	-6030
▁mem	-6031
▁mes	-6032
▁mis	-6033
▁mit	-6034
▁mod	-6035
▁moo	-6036
▁mos	-6037
▁mot	-6038
▁mou	-6039
▁muc	-6040
▁mul	-6041
▁mum	-6042
▁mut	-6043
▁nam	-6044
▁nec	-6045
▁neg	-6046
▁nep	-6047
▁ner	-6048
▁nex	-6049
▁nic	-6050
▁nin	-6051
▁nob	-6052
▁nol	-6053
▁nop	-6054
▁nos	-6055
▁nou	-6056
▁obe	-6057
▁obl	-6058
▁obs	-6059
▁oce	-6060
▁onl	-6061
▁ons	-6062
▁ont	-6063
▁org	-6064
▁pac	-6065
▁pan	-6066
▁pap	-6067
▁pas	-6068
▁pat	-6069
▁pet	-6070
▁pha	-6071
▁pho	-6072
▁pie	-6073
▁pis	-6074
▁piz	-6075
▁ple	-6076
▁pos	-6077
▁pot	-6078
▁pou	-6079
▁pub	-6080
▁que	-6081
▁qui	-6082
▁rac	-6083
▁rad	-6084
▁rap	-6085
▁rat	-6086
▁rea	-6087
▁reb	-6088
▁req	-6089
▁ret	-6090
▁rew	-6091
▁rez	-6092
▁ric	-6093
▁rid	-6094
▁roc	-6095
▁rod	-6096
▁rop	-6097
▁rou	-6098
▁rub	-6099
▁saf	-6100
▁sav	-6101
▁sca	-6102
▁sel	-6103
▁sen	-6104
▁sev	-6105
▁shi	-6106
▁sic	-6107
▁sin	-6108
▁sle	-6109
▁smi	-6110
▁smu	-6111
▁soc	-6112
▁sof	-6113
▁sop	-6114
▁sor	-6115
▁spe	-6116
▁spo	-6117
▁sta	-6118
▁sto	-6119
▁str	-6120
▁stu	-6121
▁sum	-6122
▁sun	-6123
▁sus	-6124
▁tal	-6125
▁tan	-6126
▁tas	-6127
▁tat	-6128
▁ted	-6129
▁ten	-6130
▁tex	-6131
▁tha	-6132
▁thi	-6133
▁tho	-6134
▁thr	-6135
▁thu	-6136
▁tic	-6137
▁tid	-6138
▁tin	-6139
▁tod	-6140
▁tog	-6141
▁tol	-6142
▁tre	-6143
▁tri	-6144
▁tro	-6145
▁tur	-6146
▁tuv	-6147
▁typ	-6148
▁unc	-6149
▁und	-6150
▁uni	-6151
▁unk	-6152
▁unp	-6153
▁unt	-6154
▁urg	-6155
▁val	-6156
▁vic	-6157
▁vid	-6158
▁vie	-6159
▁vig	-6160
▁vir	-6161
▁vot	-6162
▁vow	-6163
▁wal	-6164
▁wan	-6165
▁war	-6166
▁wax	-6167
▁wea	-6168
▁wee	-6169
▁wei	-6170
▁wel	-6171
▁wen	-6172
▁wep	-6173
▁wew	-6174
▁wha	-6175
▁whi	-6176
▁wid	-6177
▁wil	-6178
▁wou	-6179
▁yan	-6180
▁yar	-6181
,691,	-6182
-2003	-6183
/2001	-6184
/2006	-6185
/300.	-6186
/507)	-6187
00,00	-6188
1/287	-6189
14617	-6190
26886	-6191
93,69	-6192
:05:3	-6193
aches	-6194
actor	-6195
actur	-6196
adful	-6197
ading	-6198
adish	-6199
ainly	-6200
ainst	-6201
aling	-6202
aliti	-6203
alnut	-6204
amble	-6205
amous	-6206
ample	-6207
andlo	-6208
anese	-6209
anhat	-6210
aning	-6211
annet	-6212
anted	-6213
apons	-6214
arage	-6215
aring	-6216
arred	-6217
arrhe	-6218
arved	-6219
asses	-6220
ating	-6221
ature	-6222
aught	-6223
avens	-6224
aving	-6225
aying	-6226
bited	-6227
blems	-6228
bones	-6229
btain	-6230
cated	-6231
ceive	-6232
cemak	-6233
chair	-6234
chang	-6235
chell	-6236
cholo	-6237
chsaf	-6238
ciate	-6239
cided	-6240
ciful	-6241
cking	-6242
conom	-6243
ction	-6244
cumam	-6245
dance	-6246
dated	-6247
dress	-6248
duced	-6249
ducti	-6250
eabil	-6251
eacem	-6252
earan	-6253
ecial	-6254
edure	-6255
elebr	-6256
eling	-6257
elvis	-6258
ember	-6259
ement	-6260
emper	-6261
emple	-6262
enber	-6263
enger	-6264
ening	-6265
entar	-6266
enter	-6267
entle	-6268
entre	-6269
entry	-6270
eping	-6271
ercis	-6272
erfor	-6273
ergen	-6274
ermit	-6275
erved	-6276
erves	-6277
esend	-6278
essag	-6279
essar	-6280
essen	-6281
esses	-6282
essor	-6283
estab	-6284
ester	-6285
estif	-6286
etail	-6287
etest	-6288
ether	-6289
eting	-6290
etrat	-6291
fieds	-6292
fined	-6293
fying	-6294
ganiz	-6295
gards	-6296
garia	-6297
ghtly	-6298
gical	-6299
gular	-6300
habil	-6301
hance	-6302
hange	-6303
hanic	-6304
hants	-6305
hatre	-6306
hibic	-6307
hicle	-6308
hment	-6309
hoice	-6310
hoose	-6311
hould	-6312
ially	-6313
iated	-6314
icall	-6315
icate	-6316
icide	-6317
icket	-6318
ickey	-6319
icles	-6320
ictim	-6321
iding	-6322
ience	-6323
ienni	-6324
iever	-6325
iewed	-6326
igher	-6327
igned	-6328
ilies	-6329
iliti	-6330
ility	-6331
illat	-6332
illen	-6333
inall	-6334
ingap	-6335
inist	-6336
inite	-6337
inted	-6338
iolen	-6339
ircum	-6340
irnet	-6341
irous	-6342
ished	-6343
ishes	-6344
ising	-6345
isits	-6346
istan	-6347
isten	-6348
ister	-6349
istor	-6350
istri	-6351
isual	-6352
itari	-6353
iters	-6354
ithin	-6355
iting	-6356
ition	-6357
itnah	-6358
itory	-6359
itted	-6360
iving	-6361
izing	-6362
izzer	-6363
lated	-6364
lcome	-6365
lding	-6366
ldren	-6367
lectr	-6368
lesle	-6369
licac	-6370
licly	-6371
light	-6372
links	-6373
liver	-6374
lling	-6375
llust	-6376
loyee	-6377
maver	-6378
munch	-6379
ndent	-6380
nderl	-6381
nders	-6382
nding	-6383
ndion	-6384
ndred	-6385
ngiti	-6386
nical	-6387
nings	-6388
nment	-6389
ociti	-6390
oditi	-6391
ogies	-6392
ogist	-6393
olhan	-6394
olite	-6395
oliti	-6396
omand	-6397
oment	-6398
omeon	-6399
ometi	-6400
ommon	-6401
oners	-6402
onged	-6403
onger	-6404
ongly	-6405
ongst	-6406
oning	-6407
onnet	-6408
onour	-6409
onver	-6410
opies	-6411
oping	-6412
opter	-6413
orded	-6414
orean	-6415
oreig	-6416
orrig	-6417
orrup	-6418
orser	-6419
orted	-6420
orter	-6421
oting	-6422
ouble	-6423
ouchs	-6424
ouldn	-6425
ounds	-6426
ouple	-6427
ouris	-6428
ourth	-6429
outhe	-6430
ovebo	-6431
owing	-6432
perly	-6433
phara	-6434
ploye	-6435
pment	-6436
posed	-6437
ppall	-6438
ppear	-6439
pples	-6440
pport	-6441
ption	-6442
quest	-6443
quick	-6444
rages	-6445
ragon	-6446
raise	-6447
rance	-6448
range	-6449
rease	-6450
reful	-6451
rence	-6452
retar	-6453
reter	-6454
reven	-6455
rican	-6456
rient	-6457
rigam	-6458
rimes	-6459
rises	-6460
rison	-6461
river	-6462
rment	-6463
romis	-6464
romot	-6465
runch	-6466
rying	-6467
scill	-6468
sfied	-6469
shipp	-6470
ssing	-6471
stant	-6472
stray	-6473
sured	-6474
tally	-6475
tance	-6476
tenti	-6477
thers	-6478
therw	-6479
throu	-6480
tians	-6481
tiate	-6482
tiati	-6483
tible	-6484
tical	-6485
tiful	-6486
tiona	-6487
titud	-6488
titut	-6489
tment	-6490
tober	-6491
togra	-6492
tuous	-6493
tures	-6494
ually	-6495
uance	-6496
ubtit	-6497
udden	-6498
udent	-6499
udget	-6500
uding	-6501
uglia	-6502
uited	-6503
ulfil	-6504
uling	-6505
umber	-6506
ument	-6507
ummer	-6508
ummit	-6509
umpst	-6510
unate	-6511
unish	-6512
unity	-6513
upply	-6514
uppos	-6515
urely	-6516
urian	-6517
urned	-6518
urnit	-6519
urren	-6520
uscle	-6521
ustac	-6522
uters	-6523
uthor	-6524
uture	-6525
vated	-6526
vehic	-6527
veled	-6528
vered	-6529
verse	-6530
veryb	-6531
veryw	-6532
vited	-6533
wards	-6534
wings	-6535
yland	-6536
yrian	-6537
yscra	-6538
àíèöó	-6539
ñòðàí	-6540
▁$6.9	-6541
▁01:4	-6542
▁02:2	-6543
▁02:4	-6544
▁03:4	-6545
▁04:5	-6546
▁05:3	-6547
▁06:5	-6548
▁11:3	-6549
▁11:5	-6550
▁12:2	-6551
▁12:5	-6552
▁18:4	-6553
▁1980	-6554
▁19:5	-6555
▁2000	-6556
▁2001	-6557
▁2002	-6558
▁2004	-6559
▁2007	-6560
▁20:3	-6561
▁22:4	-6562
▁23:2	-6563
▁55/2	-6564
▁55/5	-6565
▁56:5	-6566
▁abra	-6567
▁acad	-6568
▁acce	-6569
▁acqu	-6570
▁acro	-6571
▁acti	-6572
▁adop	-6573
▁adul	-6574
▁affa	-6575
▁aler	-6576
▁alla	-6577
▁allo	-6578
▁almo	-6579
▁alre	-6580
▁alri	-6581
▁amon	-6582
▁anal	-6583
▁anci	-6584
▁anim	-6585
▁answ	-6586
▁anyb	-6587
▁anym	-6588
▁anyw	-6589
▁apol	-6590
▁appe	-6591
▁appo	-6592
▁apri	-6593
▁arou	-6594
▁arti	-6595
▁asso	-6596
▁barb	-6597
▁beac	-6598
▁beau	-6599
▁beck	-6600
▁beha	-6601
▁beir	-6602
▁bett	-6603
▁betw	-6604
▁bitt	-6605
▁bree	-6606
▁brid	-6607
▁brim	-6608
▁buck	-6609
▁budd	-6610
▁cale	-6611
▁canb	-6612
▁cart	-6613
▁caus	-6614
▁cham	-6615
▁chap	-6616
▁chas	-6617
▁chee	-6618
▁chem	-6619
▁chic	-6620
▁chie	-6621
▁chin	-6622
▁coll	-6623
▁coló	-6624
▁comb	-6625
▁comp	-6626
▁conn	-6627
▁conv	-6628
▁cour	-6629
▁cuff	-6630
▁deat	-6631
▁dece	-6632
▁dele	-6633
▁deve	-6634
▁diar	-6635
▁dieg	-6636
▁disa	-6637
▁disb	-6638
▁disc	-6639
▁disp	-6640
▁drun	-6641
▁earn	-6642
▁emer	-6643
▁enem	-6644
▁ener	-6645
▁enjo	-6646
▁enou	-6647
▁enta	-6648
▁exac	-6649
▁excu	-6650
▁exha	-6651
▁exis	-6652
▁expo	-6653
▁fami	-6654
▁faul	-6655
▁fift	-6656
▁fing	-6657
▁flun	-6658
▁flus	-6659
▁fold	-6660
▁foll	-6661
▁forg	-6662
▁form	-6663
▁forw	-6664
▁fren	-6665
▁fund	-6666
▁funn	-6667
▁garn	-6668
▁geni	-6669
▁gett	-6670
▁goal	-6671
▁godd	-6672
▁grab	-6673
▁grie	-6674
▁grou	-6675
▁guit	-6676
▁hark	-6677
▁hobb	-6678
▁hone	-6679
▁hous	-6680
▁howe	-6681
▁hurl	-6682
▁hyst	-6683
▁iden	-6684
▁idol	-6685
▁ille	-6686
▁illn	-6687
▁imag	-6688
▁inat	-6689
▁incl	-6690
▁inde	-6691
▁inha	-6692
▁inho	-6693
▁inst	-6694
▁isra	-6695
▁issu	-6696
▁itch	-6697
▁jump	-6698
▁kati	-6699
▁lary	-6700
▁laug	-6701
▁lear	-6702
▁leas	-6703
▁leve	-6704
▁lind	-6705
▁litt	-6706
▁lone	-6707
▁ludw	-6708
▁mana	-6709
▁mank	-6710
▁manu	-6711
▁marc	-6712
▁mari	-6713
▁mart	-6714
▁mast	-6715
▁mayb	-6716
▁meas	-6717
▁memb	-6718
▁merc	-6719
▁mete	-6720
▁mirr	-6721
▁misu	-6722
▁mole	-6723
▁moni	-6724
▁mont	-6725
▁mort	-6726
▁moti	-6727
▁mout	-6728
▁mumm	-6729
▁myse	-6730
▁naom	-6731
▁nati	-6732
▁nego	-6733
▁neit	-6734
▁nico	-6735
▁noth	-6736
▁noti	-6737
▁obed	-6738
▁obey	-6739
▁obsc	-6740
▁outc	-6741
▁outs	-6742
▁outw	-6743
▁pale	-6744
▁para	-6745
▁pass	-6746
▁pati	-6747
▁pear	-6748
▁peop	-6749
▁perc	-6750
▁perf	-6751
▁peri	-6752
▁perp	-6753
▁pict	-6754
▁piss	-6755
▁plac	-6756
▁plan	-6757
▁poin	-6758
▁pois	-6759
▁poss	-6760
▁poun	-6761
▁pray	-6762
▁prep	-6763
▁prev	-6764
▁prid	-6765
▁prim	-6766
▁pris	-6767
▁priv	-6768
▁prob	-6769
▁proc	-6770
▁prod	-6771
▁prof	-6772
▁prog	-6773
▁prop	-6774
▁psyc	-6775
▁qual	-6776
▁quen	-6777
▁quit	-6778
▁raci	-6779
▁reac	-6780
▁reas	-6781
▁reco	-6782
▁recr	-6783
▁recu	-6784
▁refe	-6785
▁refu	-6786
▁rein	-6787
▁rend	-6788
▁repa	-6789
▁repu	-6790
▁resp	-6791
▁rout	-6792
▁sati	-6793
▁scat	-6794
▁scen	-6795
▁sche	-6796
▁scho	-6797
▁scre	-6798
▁seat	-6799
▁sept	-6800
▁serv	-6801
▁shel	-6802
▁ship	-6803
▁shor	-6804
▁shri	-6805
▁sign	-6806
▁smok	-6807
▁soci	-6808
▁soph	-6809
▁spea	-6810
▁spec	-6811
▁star	-6812
▁stat	-6813
▁sten	-6814
▁step	-6815
▁stin	-6816
▁ston	-6817
▁stor	-6818
▁stre	-6819
▁stun	-6820
▁subj	-6821
▁subm	-6822
▁surf	-6823
▁surv	-6824
▁swee	-6825
▁syst	-6826
▁tast	-6827
▁teen	-6828
▁tent	-6829
▁tere	-6830
▁term	-6831
▁terr	-6832
▁thei	-6833
▁ther	-6834
▁thes	-6835
▁thin	-6836
▁thir	-6837
▁thre	-6838
▁tink	-6839
▁trac	-6840
▁trag	-6841
▁trut	-6842
▁tund	-6843
▁unhe	-6844
▁unik	-6845
▁unkn	-6846
▁unle	-6847
▁unti	-6848
▁verb	-6849
▁veri	-6850
▁vide	-6851
▁wast	-6852
▁wayb	-6853
▁weal	-6854
▁weap	-6855
▁week	-6856
▁weir	-6857
▁weld	-6858
▁welf	-6859
▁whee	-6860
▁whic	-6861
▁whit	-6862
▁whoe	-6863
▁whyt	-6864
▁wond	-6865
▁worr	-6866
▁wors	-6867
▁wrat	-6868
▁youn	-6869
,691,6	-6870
/61/12	-6871
00,000	-6872
7/300.	-6873
aborat	-6874
achine	-6875
aching	-6876
actice	-6877
actory	-6878
akness	-6879
alance	-6880
alings	-6881
alking	-6882
alnuts	-6883
andion	-6884
anking	-6885
antage	-6886
aptain	-6887
arious	-6888
arting	-6889
asmine	-6890
asterc	-6891
atched	-6892
atrick	-6893
biliti	-6894
bulate	-6895
bution	-6896
cation	-6897
cepted	-6898
ciated	-6899
cision	-6900
coming	-6901
ctober	-6902
cuador	-6903
denber	-6904
eannet	-6905
ederal	-6906
elings	-6907
emones	-6908
encies	-6909
endent	-6910
engers	-6911
entati	-6912
ention	-6913
entive	-6914
entlem	-6915
enying	-6916
erical	-6917
erious	-6918
ersist	-6919
ertain	-6920
ervous	-6921
esides	-6922
especi	-6923
essage	-6924
essary	-6925
essful	-6926
ession	-6927
establ	-6928
estion	-6929
estruc	-6930
etails	-6931
etings	-6932
feated	-6933
fferen	-6934
finite	-6935
formal	-6936
fortun	-6937
friend	-6938
gation	-6939
gement	-6940
gramme	-6941
hatred	-6942
hicles	-6943
hieved	-6944
hnical	-6945
hnolog	-6946
icated	-6947
ickets	-6948
ictims	-6949
idance	-6950
idence	-6951
ieuten	-6952
ievers	-6953
ifieds	-6954
igning	-6955
ilance	-6956
ildren	-6957
ilford	-6958
illing	-6959
illion	-6960
imilar	-6961
imited	-6962
inally	-6963
incent	-6964
incere	-6965
ineapp	-6966
inking	-6967
inland	-6968
inning	-6969
inuous	-6970
iously	-6971
ipment	-6972
irding	-6973
irtuos	-6974
isions	-6975
issing	-6976
ission	-6977
isting	-6978
istort	-6979
istrib	-6980
itable	-6981
ithout	-6982
itiati	-6983
itness	-6984
kyscra	-6985
lation	-6986
lement	-6987
lestin	-6988
levant	-6989
lexand	-6990
lfless	-6991
licate	-6992
mation	-6993
mentar	-6994
mulous	-6995
nation	-6996
ndance	-6997
nderst	-6998
ngitis	-6999
nments	-7000
ointed	-7001
olhani	-7002
ologiz	-7003
onable	-7004
onight	-7005
onment	-7006
opment	-7007
ording	-7008
oreans	-7009
oreign	-7010
orning	-7011
ortant	-7012
ortion	-7013
ouched	-7014
oughts	-7015
ouncil	-7016
ourish	-7017
outher	-7018
pening	-7019
person	-7020
petrat	-7021
phibic	-7022
ployee	-7023
posals	-7024
ppress	-7025
raight	-7026
rawled	-7027
reated	-7028
rently	-7029
resent	-7030
retari	-7031
retary	-7032
riends	-7033
rigami	-7034
rigend	-7035
ripper	-7036
robiol	-7037
romote	-7038
ropper	-7039
rother	-7040
rouble	-7041
rought	-7042
rument	-7043
sation	-7044
sembly	-7045
sident	-7046
sisted	-7047
sition	-7048
ssibil	-7049
tainly	-7050
tation	-7051
tected	-7052
terest	-7053
tional	-7054
tition	-7055
tograp	-7056
troduc	-7057
tually	-7058
tuency	-7059
uances	-7060
uation	-7061
ubbing	-7062
ubbish	-7063
uccess	-7064
ucking	-7065
uction	-7066
ulfill	-7067
umanit	-7068
ummary	-7069
undred	-7070
unrise	-7071
upport	-7072
urgers	-7073
urning	-7074
urrent	-7075
ursued	-7076
urther	-7077
urting	-7078
usband	-7079
uspect	-7080
ussion	-7081
ustain	-7082
ustice	-7083
utions	-7084
vately	-7085
vative	-7086
veloci	-7087
vement	-7088
vender	-7089
vening	-7090
verest	-7091
veryon	-7092
veryth	-7093
viewed	-7094
vities	-7095
vulate	-7096
ystems	-7097
zation	-7098
▁(1991	-7099
▁1980/	-7100
▁abduc	-7101
▁accid	-7102
▁adopt	-7103
▁alloc	-7104
▁anyon	-7105
▁anyth	-7106
▁appra	-7107
▁appre	-7108
▁arian	-7109
▁armen	-7110
▁assho	-7111
▁assum	-7112
▁assur	-7113
▁astro	-7114
▁attac	-7115
▁baker	-7116
▁becau	-7117
▁becom	-7118
▁betwe	-7119
▁bleed	-7120
▁breac	-7121
▁brook	-7122
▁build	-7123
▁carri	-7124
▁centr	-7125
▁chall	-7126
▁champ	-7127
▁chand	-7128
▁chang	-7129
▁chann	-7130
▁charg	-7131
▁cheek	-7132
▁chick	-7133
▁chord	-7134
▁chris	-7135
▁coffe	-7136
▁color	-7137
▁compe	-7138
▁compu	-7139
▁conce	-7140
▁condi	-7141
▁contr	-7142
▁corre	-7143
▁counc	-7144
▁creat	-7145
▁creep	-7146
▁deadl	-7147
▁decem	-7148
▁delar	-7149
▁delay	-7150
▁delud	-7151
▁detec	-7152
▁devel	-7153
▁diarr	-7154
▁disgu	-7155
▁docum	-7156
▁donal	-7157
▁donor	-7158
▁drown	-7159
▁eaves	-7160
▁effor	-7161
▁encas	-7162
▁encou	-7163
▁endea	-7164
▁energ	-7165
▁enfor	-7166
▁envir	-7167
▁exact	-7168
▁excit	-7169
▁expec	-7170
▁exper	-7171
▁expos	-7172
▁expre	-7173
▁favou	-7174
▁figur	-7175
▁firep	-7176
▁forgi	-7177
▁gabri	-7178
▁goodb	-7179
▁gover	-7180
▁grate	-7181
▁grati	-7182
▁grump	-7183
▁guyan	-7184
▁halon	-7185
▁handb	-7186
▁herse	-7187
▁illeg	-7188
▁incid	-7189
▁incor	-7190
▁indep	-7191
▁infor	-7192
▁invis	-7193
▁learn	-7194
▁leban	-7195
▁lockd	-7196
▁manag	-7197
▁manuf	-7198
▁marci	-7199
▁marik	-7200
▁marri	-7201
▁metho	-7202
▁milit	-7203
▁mirac	-7204
▁moles	-7205
▁monet	-7206
▁monro	-7207
▁mover	-7208
▁obser	-7209
▁oppos	-7210
▁ordin	-7211
▁parad	-7212
▁paren	-7213
▁phara	-7214
▁picol	-7215
▁polic	-7216
▁pover	-7217
▁prick	-7218
▁prima	-7219
▁produ	-7220
▁proto	-7221
▁psych	-7222
▁queen	-7223
▁quick	-7224
▁reall	-7225
▁recei	-7226
▁recom	-7227
▁recru	-7228
▁refle	-7229
▁refus	-7230
▁reint	-7231
▁relia	-7232
▁relie	-7233
▁relig	-7234
▁repay	-7235
▁repre	-7236
▁repro	-7237
▁repub	-7238
▁requi	-7239
▁resid	-7240
▁resol	-7241
▁reven	-7242
▁sched	-7243
▁scrat	-7244
▁screw	-7245
▁secon	-7246
▁secre	-7247
▁secur	-7248
▁separ	-7249
▁sheil	-7250
▁shitt	-7251
▁shopp	-7252
▁short	-7253
▁somal	-7254
▁someb	-7255
▁somet	-7256
▁somew	-7257
▁stand	-7258
▁stepp	-7259
▁stray	-7260
▁surre	-7261
▁teres	-7262
▁terri	-7263
▁throu	-7264
▁toget	-7265
▁tomat	-7266
▁traff	-7267
▁train	-7268
▁unpro	-7269
▁urget	-7270
▁whate	-7271
▁wheel	-7272
▁whene	-7273
▁worri	-7274
▁writt	-7275
▁ñòðàí	-7276
/2006/5	-7277
00:05:3	-7278
1/287),	-7279
14617.0	-7280
alities	-7281
arnings	-7282
artoons	-7283
atement	-7284
ativity	-7285
aughter	-7286
conomic	-7287
continu	-7288
ddenber	-7289
dropper	-7290
ductive	-7291
edience	-7292
elieved	-7293
ercises	-7294
ergency	-7295
ersonal	-7296
esirous	-7297
essions	-7298
estions	-7299
fferent	-7300
grammes	-7301
grapher	-7302
habilit	-7303
habited	-7304
hanical	-7305
iculous	-7306
iennium	-7307
igation	-7308
illenni	-7309
ination	-7310
intment	-7311
iolence	-7312
irtuous	-7313
isional	-7314
isoners	-7315
istance	-7316
itation	-7317
itchell	-7318
izzeria	-7319
jective	-7320
kyscrap	-7321
lectron	-7322
logical	-7323
ndation	-7324
nderson	-7325
olation	-7326
omicide	-7327
onments	-7328
ordance	-7329
orrible	-7330
orserad	-7331
ortance	-7332
plement	-7333
pleting	-7334
raction	-7335
ranging	-7336
readful	-7337
regular	-7338
risoned	-7339
runchie	-7340
tations	-7341
tection	-7342
tending	-7343
tension	-7344
tential	-7345
tentive	-7346
tifying	-7347
tisfied	-7348
tivated	-7349
uations	-7350
ublicly	-7351
ucation	-7352
ulgaria	-7353
umpster	-7354
undance	-7355
uppress	-7356
uptible	-7357
uration	-7358
urement	-7359
veloped	-7360
vements	-7361
veryone	-7362
viously	-7363
ysteric	-7364
▁2002-2	-7365
▁abduct	-7366
▁academ	-7367
▁accoun	-7368
▁action	-7369
▁advant	-7370
▁affair	-7371
▁aftern	-7372
▁alread	-7373
▁analys	-7374
▁anywhe	-7375
▁appall	-7376
▁associ	-7377
▁assure	-7378
▁beauti	-7379
▁beckon	-7380
▁belong	-7381
▁breakf	-7382
▁calend	-7383
▁canber	-7384
▁cheekb	-7385
▁circum	-7386
▁classi	-7387
▁commer	-7388
▁commod	-7389
▁concer	-7390
▁condem	-7391
▁conduc	-7392
▁confor	-7393
▁conser	-7394
▁consti	-7395
▁consul	-7396
▁consum	-7397
▁contin	-7398
▁contri	-7399
▁conven	-7400
▁conver	-7401
▁creepi	-7402
▁curren	-7403
▁delive	-7404
▁disapp	-7405
▁discus	-7406
▁dispos	-7407
▁easter	-7408
▁econom	-7409
▁encoun	-7410
▁endeav	-7411
▁entail	-7412
▁enterp	-7413
▁especi	-7414
▁establ	-7415
▁everyb	-7416
▁everyw	-7417
▁excell	-7418
▁expect	-7419
▁explod	-7420
▁explos	-7421
▁famili	-7422
▁firepl	-7423
▁goddam	-7424
▁goodby	-7425
▁grandf	-7426
▁gratit	-7427
▁harkon	-7428
▁harves	-7429
▁identi	-7430
▁includ	-7431
▁incorr	-7432
▁inhosp	-7433
▁interc	-7434
▁interv	-7435
▁invest	-7436
▁invisi	-7437
▁landlo	-7438
▁laught	-7439
▁lauren	-7440
▁manhat	-7441
▁mercur	-7442
▁messag	-7443
▁messen	-7444
▁meteor	-7445
▁minist	-7446
▁moniqu	-7447
▁mustac	-7448
▁necess	-7449
▁negoti	-7450
▁obtain	-7451
▁offend	-7452
▁opport	-7453
▁opposi	-7454
▁ordain	-7455
▁oscill	-7456
▁otherw	-7457
▁partic	-7458
▁perfor	-7459
▁poison	-7460
▁politi	-7461
▁preven	-7462
▁proced	-7463
▁produc	-7464
▁progra	-7465
▁promis	-7466
▁protoc	-7467
▁provid	-7468
▁provis	-7469
▁psycho	-7470
▁punish	-7471
▁recogn	-7472
▁recomm	-7473
▁region	-7474
▁relati	-7475
▁remain	-7476
▁rememb	-7477
▁reques	-7478
▁restra	-7479
▁return	-7480
▁romand	-7481
▁rotter	-7482
▁septem	-7483
▁servic	-7484
▁sesend	-7485
▁singap	-7486
▁someon	-7487
▁someti	-7488
▁sonnet	-7489
▁southe	-7490
▁specif	-7491
▁strong	-7492
▁subtit	-7493
▁suppos	-7494
▁sweeti	-7495
▁territ	-7496
▁therea	-7497
▁thereb	-7498
▁tomato	-7499
▁tomorr	-7500
▁ultrab	-7501
▁uncomm	-7502
▁underl	-7503
▁univer	-7504
▁veloci	-7505
▁vouchs	-7506
▁wearin	-7507
▁welcom	-7508
▁yester	-7509
▁yourse	-7510
,691,600	-7511
acturing	-7512
ambulate	-7513
ariances	-7514
asonable	-7515
believed	-7516
cational	-7517
cemaking	-7518
changing	-7519
chanical	-7520
diculous	-7521
eability	-7522
eannette	-7523
earances	-7524
egration	-7525
elebrity	-7526
endation	-7527
entation	-7528
entleman	-7529
ersisted	-7530
ffective	-7531
fication	-7532
finitely	-7533
hotograp	-7534
igations	-7535
igilance	-7536
intments	-7537
inuation	-7538
iolation	-7539
irperson	-7540
legation	-7541
lexander	-7542
mination	-7543
national	-7544
nication	-7545
ologized	-7546
ortunate	-7547
oveboard	-7548
peration	-7549
petrator	-7550
phibicop	-7551
quipment	-7552
remulous	-7553
rigendum	-7554
robiolog	-7555
tivities	-7556
ufflinks	-7557
urniture	-7558
uthority	-7559
veloping	-7560
vernment	-7561
volution	-7562
▁1980/11	-7563
▁afterno	-7564
▁appreci	-7565
▁arrange	-7566
▁assured	-7567
▁breakth	-7568
▁chastit	-7569
▁christi	-7570
▁competi	-7571
▁concret	-7572
▁conflic	-7573
▁conform	-7574
▁conserv	-7575
▁conside	-7576
▁constit	-7577
▁constra	-7578
▁consump	-7579
▁contain	-7580
▁contrib	-7581
▁countle	-7582
▁countri	-7583
▁delicac	-7584
▁destruc	-7585
▁distort	-7586
▁distrib	-7587
▁employe	-7588
▁encoura	-7589
▁express	-7590
▁fulfill	-7591
▁humanit	-7592
▁instrum	-7593
▁masterc	-7594
▁merchan	-7595
▁organiz	-7596
▁partici	-7597
▁peaceke	-7598
▁perform	-7599
▁picolit	-7600
▁pineapp	-7601
▁procure	-7602
▁profess	-7603
▁recogni	-7604
▁referen	-7605
▁reflect	-7606
▁remembr	-7607
▁shrivel	-7608
▁sincere	-7609
▁somewhe	-7610
▁souther	-7611
▁submitt	-7612
▁success	-7613
▁sustain	-7614
▁sweethe	-7615
▁thereaf	-7616
▁underst	-7617
▁virtuos	-7618
▁witness	-7619
▁yoursel	-7620
00:05:31)	-7621
aboratory	-7622
adication	-7623
aryngitis	-7624
attentive	-7625
ddenberry	-7626
endations	-7627
erational	-7628
formation	-7629
ideration	-7630
ieutenant	-7631
ification	-7632
itiatives	-7633
lectronic	-7634
lestinian	-7635
ligations	-7636
ocational	-7637
odalities	-7638
ointments	-7639
operation	-7640
perations	-7641
protected	-7642
ssibility	-7643
ultations	-7644
unication	-7645
uperation	-7646
ustration	-7647
velopment	-7648
ventional	-7649
vernments	-7650
versation	-7651
verything	-7652
ysterical	-7653
▁committe	-7654
▁consider	-7655
▁constitu	-7656
▁controll	-7657
▁differen	-7658
▁establis	-7659
▁everywhe	-7660
▁horserad	-7661
▁independ	-7662
▁interpre	-7663
▁introduc	-7664
▁millenni	-7665
▁opportun	-7666
▁particip	-7667
▁position	-7668
▁possibil	-7669
▁recogniz	-7670
▁reporter	-7671
▁reproduc	-7672
▁skyscrap	-7673
▁suppress	-7674
▁worshipp	-7675
hospitable	-7676
ortunately	-7677
perational	-7678
ufacturing	-7679
vesdropper	-7680
vironments	-7681
▁enterpris	-7682
▁implement	-7683
▁important	-7684
▁interpret	-7685
▁peacekeep	-7686
▁photograp	-7687
▁psycholog	-7688
▁rehabilit	-7689
▁secretari	-7690
▁singapore	-7691
▁specializ	-7692
▁technolog	-7693
appearances	-7694
cumambulate	-7695
cumentation	-7696
integration	-7697
ommendation	-7698
resentative	-7699
viceability	-7700
ysterically	-7701
▁amphibicop	-7702
▁complement	-7703
▁continuous	-7704
▁incorrupti	-7705
ommendations	-7706
▁astrobiolog	-7707
▁contribution	-7708
▁	-7709
e	-7710
t	-7711
o	-7712
a	-7713
i	-7714
n	-7715
s	-7716
h	-7717
r	-7718
l	-7719
d	-7720
u	-7721
.	-7722
m	-7723
y	-7724
c	-7725
w	-7726
g	-7727
f	-7728
p	-7729
,	-7730
b	-7731
'	-7732
v	-7733
k	-7734
?	-7735
-	-7736
1	-7737
0	-7738
!	-7739
2	-7740
x	-7741
:	-7742
j	-7743
5	-7744
3	-7745
(	-7746
)	-7747
6	-7748
9	-7749
"	-7750
/	-7751
4	-7752
8	-7753
z	-7754
;	-7755
q	-7756
7	-7757
#	-7758
[	-7759
+	-7760
]	-7761
“	-7762
%	-7763
=	-7764
_	-7765
”	-7766
$	-7767
	-7768
°	-7769
à	-7770
ä	-7771
å	-7772
í	-7773
ð	-7774
ñ	-7775
ó	-7776
♪	-7777
&	-7778
*	-7779
è	-7780
ë	-7781
ï	-7782
ò	-7783
ö	-7784
