<pad>	0
<unk>	0
<s>	0
</s>	0
▁п	-0
▁н	-1
▁в	-2
▁с	-3
то	-4
▁о	-5
ен	-6
▁и	-7
▁м	-8
ст	-9
▁д	-10
ра	-11
▁т	-12
▁по	-13
ет	-14
ко	-15
го	-16
но	-17
ро	-18
ли	-19
▁не	-20
▁ч	-21
ре	-22
ка	-23
▁б	-24
ла	-25
ни	-26
▁на	-27
ть	-28
ри	-29
▁з	-30
▁у	-31
ва	-32
▁-	-33
на	-34
▁я	-35
ль	-36
во	-37
▁что	-38
ер	-39
ло	-40
..	-41
▁э	-42
да	-43
ем	-44
ся	-45
ны	-46
ени	-47
те	-48
▁е	-49
▁ко	-50
▁а	-51
▁за	-52
▁про	-53
▁это	-54
ми	-55
хо	-56
▁ты	-57
ви	-58
та	-59
ди	-60
де	-61
▁до	-62
ле	-63
▁к	-64
▁со	-65
▁во	-66
▁вы	-67
▁ра	-68
▁ка	-69
▁бы	-70
ти	-71
▁при	-72
ам	-73
ля	-74
бо	-75
ру	-76
▁мо	-77
▁то	-78
че	-79
▁от	-80
ки	-81
ду	-82
сь	-83
▁те	-84
ма	-85
не	-86
ча	-87
...	-88
▁да	-89
шь	-90
▁ни	-91
ци	-92
ве	-93
за	-94
по	-95
ста	-96
до	-97
се	-98
▁го	-99
▁та	-100
▁ж	-101
га	-102
мо	-103
▁мы	-104
лю	-105
си	-106
▁об	-107
лу	-108
▁t	-109
сти	-110
▁пре	-111
▁г	-112
▁хо	-113
чи	-114
▁из	-115
▁он	-116
ей	-117
щи	-118
ение	-119
▁как	-120
▁ре	-121
▁нет	-122
вет	-123
сть	-124
ку	-125
ши	-126
▁но	-127
сто	-128
▁так	-129
▁де	-130
жи	-131
бе	-132
ме	-133
па	-134
▁ма	-135
ения	-136
▁все	-137
жа	-138
ша	-139
ше	-140
еня	-141
ешь	-142
▁бу	-143
льно	-144
ры	-145
ют	-146
вы	-147
ря	-148
му	-149
▁2	-150
▁меня	-151
же	-152
ну	-153
ции	-154
▁зна	-155
▁раз	-156
ву	-157
бя	-158
са	-159
▁пос	-160
ня	-161
▁1	-162
▁ме	-163
▁его	-164
▁они	-165
ще	-166
▁(	-167
ных	-168
▁ва	-169
▁ми	-170
▁ну	-171
▁пра	-172
▁кото	-173
со	-174
▁[	-175
▁i	-176
ему	-177
ень	-178
ете	-179
▁th	-180
▁бо	-181
▁се	-182
ться	-183
▁ф	-184
ные	-185
ный	-186
▁лю	-187
ется	-188
ги	-189
дь	-190
ере	-191
ной	-192
сли	-193
▁мне	-194
су	-195
вер	-196
лла	-197
▁ви	-198
каза	-199
бы	-200
гда	-201
ско	-202
▁ве	-203
▁ли	-204
вать	-205
вори	-206
▁пред	-207
00	-208
зо	-209
лы	-210
тра	-211
лько	-212
▁the	-213
би	-214
жно	-215
▁му	-216
енно	-217
ллах	-218
▁для	-219
▁сво	-220
▁если	-221
▁тебя	-222
me	-223
сс	-224
▁х	-225
дни	-226
ния	-227
про	-228
ски	-229
спо	-230
▁бе	-231
▁ду	-232
▁вам	-233
▁воз	-234
▁тво	-235
no	-236
ды	-237
пе	-238
пи	-239
ты	-240
▁"	-241
▁a	-242
лож	-243
ющи	-244
▁ti	-245
▁па	-246
чего	-247
▁вот	-248
▁сам	-249
▁пока	-250
гу	-251
жен	-252
сно	-253
ство	-254
ству	-255
▁дол	-256
▁дру	-257
▁нас	-258
▁слу	-259
▁спа	-260
▁time	-261
▁было	-262
▁аллах	-263
▁привет	-264
вл	-265
▁o	-266
▁p	-267
вля	-268
дет	-269
дно	-270
жет	-271
чно	-272
▁is	-273
▁же	-274
▁их	-275
▁си	-276
▁че	-277
тель	-278
ходи	-279
▁под	-280
▁дела	-281
▁оста	-282
▁сказа	-283
▁ничего	-284
бу	-285
ту	-286
now	-287
вай	-288
ета	-289
зна	-290
лан	-291
ние	-292
▁вс	-293
▁жи	-294
ства	-295
▁кон	-296
▁чем	-297
▁буду	-298
▁дума	-299
▁помо	-300
▁пото	-301
▁рабо	-302
▁после	-303
▁которы	-304
вя	-305
ца	-306
мен	-307
ная	-308
ным	-309
пол	-310
▁ее	-311
▁оч	-312
▁пу	-313
сибо	-314
ются	-315
▁кто	-316
▁она	-317
▁пере	-318
▁тебе	-319
тельно	-320
▁только	-321
▁спасибо	-322
об	-323
чу	-324
▁.	-325
▁0	-326
▁c	-327
вен	-328
дар	-329
ерь	-330
пра	-331
▁ку	-332
▁ему	-333
▁нико	-334
▁давай	-335
▁когда	-336
▁говори	-337
".	-338
in	-339
зы	-340
ис	-341
ке	-342
нь	-343
от	-344
це	-345
цы	-346
ща	-347
▁m	-348
гра	-349
дин	-350
кой	-351
мот	-352
пре	-353
рга	-354
сту	-355
цен	-356
ция	-357
▁им	-358
▁ин	-359
▁ис	-360
▁ро	-361
▁су	-362
▁ту	-363
десь	-364
нима	-365
▁now	-366
▁был	-367
▁вер	-368
▁ста	-369
▁там	-370
▁орга	-371
▁само	-372
▁хоро	-373
▁здесь	-374
▁знаешь	-375
te	-376
ба	-377
зи	-378
мы	-379
шо	-380
ят	-381
▁w	-382
▁—	-383
дер	-384
жду	-385
кла	-386
ком	-387
лся	-388
ное	-389
при	-390
тов	-391
час	-392
▁ба	-393
▁са	-394
вали	-395
дела	-396
стре	-397
▁бла	-398
▁еще	-399
▁объ	-400
▁сей	-401
▁том	-402
▁быть	-403
▁есть	-404
▁стра	-405
▁вопро	-406
▁очень	-407
▁прави	-408
▁чтобы	-409
▁этого	-410
▁просто	-411
▁сейчас	-412
en	-413
жу	-414
▁3	-415
▁л	-416
▁ш	-417
бой	-418
вед	-419
вра	-420
дел	-421
ена	-422
ене	-423
ков	-424
мер	-425
нет	-426
рем	-427
тив	-428
▁ча	-429
ного	-430
▁200	-431
▁всё	-432
▁зем	-433
▁нам	-434
▁тех	-435
▁боль	-436
▁года	-437
▁свои	-438
▁полож	-439
▁которо	-440
бл	-441
сы	-442
фи	-443
фо	-444
▁5	-445
гла	-446
дей	-447
ети	-448
ита	-449
йте	-450
тся	-451
ход	-452
чет	-453
▁19	-454
▁ma	-455
▁pm	-456
▁вз	-457
▁ла	-458
▁ру	-459
ений	-460
ника	-461
седа	-462
стоя	-463
▁где	-464
▁гла	-465
▁дер	-466
▁доб	-467
▁или	-468
▁име	-469
▁нем	-470
▁пря	-471
▁уже	-472
▁эти	-473
вания	-474
енера	-475
судар	-476
чески	-477
▁были	-478
▁всех	-479
▁могу	-480
▁нача	-481
▁расс	-482
▁други	-483
▁между	-484
▁может	-485
▁разви	-486
▁генера	-487
▁хорошо	-488
▁государ	-489
▁которые	-490
▁предста	-491
ne	-492
um	-493
ез	-494
жд	-495
пу	-496
рт	-497
▁s	-498
▁«	-499
аль	-500
ван	-501
вод	-502
его	-503
йти	-504
луч	-505
рен	-506
род	-507
сси	-508
тер	-509
тро	-510
шли	-511
▁[[	-512
▁пе	-513
▁фа	-514
будь	-515
дите	-516
ении	-517
зыва	-518
коми	-519
лась	-520
лове	-521
лось	-522
низа	-523
пера	-524
перь	-525
стви	-526
чешь	-527
▁...	-528
▁две	-529
▁мож	-530
▁мой	-531
▁свя	-532
▁ска	-533
▁сто	-534
▁уча	-535
енных	-536
жения	-537
ствен	-538
▁врем	-539
▁знаю	-540
▁коми	-541
▁обра	-542
▁прав	-543
▁хочу	-544
▁чего	-545
говори	-546
нибудь	-547
▁благо	-548
▁будет	-549
▁докла	-550
▁нужно	-551
▁опера	-552
▁сдела	-553
знакоми	-554
▁вопрос	-555
▁теперь	-556
▁хочешь	-557
▁никогда	-558
▁организа	-559
01	-560
:2	-561
:5	-562
ed	-563
on	-564
ou	-565
фе	-566
ях	-567
▁b	-568
вор	-569
гли	-570
дол	-571
ено	-572
ерт	-573
зво	-574
йся	-575
кое	-576
лях	-577
мни	-578
ник	-579
нию	-580
она	-581
ран	-582
ров	-583
сло	-584
сни	-585
сте	-586
тем	-587
тия	-588
том	-589
ций	-590
что	-591
шай	-592
щих	-593
юда	-594
▁wa	-595
▁га	-596
▁её	-597
▁од	-598
▁пи	-599
▁ум	-600
▁фо	-601
▁це	-602
▁ша	-603
▁эй	-604
бира	-605
вета	-606
вить	-607
дума	-608
лись	-609
лыша	-610
стер	-611
ступ	-612
▁без	-613
▁вас	-614
▁жиз	-615
▁мар	-616
▁нес	-617
▁рас	-618
▁сек	-619
▁смо	-620
▁сот	-621
держа	-622
ответ	-623
ходит	-624
▁ваши	-625
▁голо	-626
▁долж	-627
▁дома	-628
▁люди	-629
▁один	-630
▁осно	-631
▁отли	-632
▁пове	-633
▁этот	-634
енного	-635
▁время	-636
▁думаю	-637
▁комит	-638
▁потом	-639
▁предо	-640
▁проис	-641
▁делать	-642
▁должен	-643
▁потому	-644
▁процен	-645
▁междуна	-646
▁сказала	-647
▁соответ	-648
▁познакоми	-649
▁организации	-650
.]	-651
:1	-652
al	-653
ct	-654
er	-655
ly	-656
op	-657
re	-658
ан	-659
нс	-660
он	-661
чь	-662
ёт	-663
ար	-664
▁,	-665
▁h	-666
▁j	-667
▁u	-668
.]]	-669
ent	-670
блю	-671
бря	-672
вал	-673
вой	-674
вый	-675
дем	-676
дне	-677
ема	-678
ент	-679
ива	-680
ких	-681
кон	-682
кто	-683
лиш	-684
ний	-685
нно	-686
ную	-687
ред	-688
рма	-689
рой	-690
сле	-691
сов	-692
шей	-693
шел	-694
ший	-695
шка	-696
юсь	-697
▁am	-698
▁of	-699
▁ей	-700
▁иг	-701
▁ст	-702
▁сы	-703
вини	-704
дете	-705
ению	-706
енщи	-707
ерез	-708
кого	-709
лага	-710
льзо	-711
писа	-712
рета	-713
сили	-714
стью	-715
теля	-716
чита	-717
чной	-718
ющие	-719
ющих	-720
▁201	-721
▁бли	-722
▁гру	-723
▁дет	-724
▁луч	-725
▁мои	-726
▁ним	-727
▁них	-728
▁обо	-729
▁пар	-730
▁пер	-731
▁ско	-732
▁сла	-733
▁сле	-734
▁сло	-735
▁сме	-736
▁сов	-737
▁тут	-738
▁уго	-739
▁уст	-740
енное	-741
ешься	-742
льной	-743
мотри	-744
рение	-745
слови	-746
ческо	-747
шение	-748
▁будь	-749
▁испо	-750
▁коне	-751
▁моло	-752
▁наши	-753
▁ними	-754
▁объя	-755
▁подо	-756
▁себя	-757
▁слиш	-758
▁смер	-759
▁того	-760
▁фото	-761
вления	-762
▁times	-763
▁госпо	-764
▁держи	-765
▁женщи	-766
▁ладно	-767
▁пробл	-768
▁прямо	-769
▁через	-770
сколько	-771
▁больше	-772
▁возвра	-773
▁заседа	-774
▁остави	-775
▁понима	-776
▁работа	-777
▁сказал	-778
▁челове	-779
▁слишком	-780
▁использо	-781
▁которого	-782
▁происходит	-783
▁государства	-784
▁познакомиться	-785
/2	-786
1)	-787
:3	-788
da	-789
ic	-790
or	-791
os	-792
ra	-793
дл	-794
зу	-795
зя	-796
ню	-797
пы	-798
ск	-799
ую	-800
ха	-801
хи	-802
щь	-803
щё	-804
ью	-805
эр	-806
ան	-807
▁+	-808
▁4	-809
▁6	-810
▁v	-811
ber	-812
ing	-813
амб	-814
бра	-815
вые	-816
гля	-817
год	-818
гой	-819
дал	-820
дея	-821
дов	-822
дут	-823
дца	-824
емо	-825
кие	-826
кра	-827
кры	-828
лая	-829
лее	-830
лей	-831
лну	-832
мся	-833
нес	-834
нов	-835
ном	-836
рая	-837
рез	-838
риа	-839
рми	-840
руг	-841
ряд	-842
тел	-843
уча	-844
хам	-845
чай	-846
чем	-847
чен	-848
чит	-849
шло	-850
▁10	-851
▁ди	-852
▁ло	-853
▁ок	-854
▁ри	-855
▁ха	-856
▁чи	-857
▁чё	-858
втра	-859
дили	-860
дить	-861
жала	-862
зопа	-863
исти	-864
ктив	-865
лати	-866
лень	-867
логи	-868
мени	-869
рока	-870
стей	-871
тесь	-872
циях	-873
чему	-874
шего	-875
ятно	-876
▁was	-877
▁асс	-878
▁бро	-879
▁дея	-880
▁ещё	-881
▁зап	-882
▁зву	-883
▁лет	-884
▁обы	-885
▁осо	-886
▁осу	-887
▁пой	-888
▁пол	-889
▁сер	-890
▁спе	-891
▁сте	-892
▁тру	-893
▁уби	-894
▁ужа	-895
▁фай	-896
▁цен	-897
▁эта	-898
амбле	-899
ерьез	-900
жение	-901
люции	-902
мента	-903
можно	-904
полни	-905
полня	-906
рован	-907
рудни	-908
стань	-909
стить	-910
тации	-911
участ	-912
ходят	-913
чения	-914
щение	-915
▁ведь	-916
▁вели	-917
▁дере	-918
▁жерт	-919
▁кого	-920
▁куда	-921
▁маши	-922
▁надо	-923
▁него	-924
▁необ	-925
▁ника	-926
▁объе	-927
▁одна	-928
▁одни	-929
▁писа	-930
▁пожа	-931
▁поня	-932
▁путь	-933
▁реки	-934
▁самы	-935
▁сист	-936
▁сооб	-937
▁сюда	-938
▁твою	-939
▁твоя	-940
▁хоти	-941
вление	-942
зывает	-943
льного	-944
сности	-945
ставля	-946
ствует	-947
стрели	-948
ческие	-949
ческих	-950
чилось	-951
▁волну	-952
▁всего	-953
▁встре	-954
▁глаза	-955
▁лучше	-956
▁людей	-957
▁путем	-958
▁своей	-959
▁скажи	-960
▁следу	-961
▁слова	-962
▁слыша	-963
▁счита	-964
▁чисто	-965
вляется	-966
иваются	-967
▁аллаха	-968
▁безопа	-969
▁должны	-970
▁извини	-971
▁малень	-972
▁можете	-973
▁помощь	-974
▁послан	-975
▁продол	-976
▁своего	-977
▁серьез	-978
▁слушай	-979
▁собира	-980
▁совета	-981
▁говорил	-982
▁комитет	-983
▁отлично	-984
▁рассмот	-985
▁секрета	-986
▁ассамбле	-987
▁возвраща	-988
▁необходи	-989
▁поговори	-990
▁процента	-991
▁сотрудни	-992
▁несколько	-993
▁операциях	-994
▁случилось	-995
▁международ	-996
▁соответству	-997
▁безопасности	-998
5,	-999
:0	-1000
],	-1001
ac	-1002
an	-1003
ep	-1004
ie	-1005
le	-1006
om	-1007
ps	-1008
sg	-1009
ul	-1010
ur	-1011
».	-1012
ге	-1013
ир	-1014
ит	-1015
их	-1016
кс	-1017
мм	-1018
нх	-1019
од	-1020
пя	-1021
тя	-1022
ум	-1023
цу	-1024
ья	-1025
ախ	-1026
ին	-1027
▁#	-1028
▁d	-1029
▁e	-1030
▁g	-1031
▁k	-1032
▁n	-1033
▁ю	-1034
▁ќ	-1035
▁հ	-1036
ion	-1037
net	-1038
not	-1039
ous	-1040
ted	-1041
ual	-1042
ама	-1043
бер	-1044
бли	-1045
бом	-1046
бую	-1047
вых	-1048
выш	-1049
вящ	-1050
дро	-1051
емы	-1052
ены	-1053
еры	-1054
еть	-1055
жал	-1056
жда	-1057
жды	-1058
жик	-1059
зан	-1060
здо	-1061
ими	-1062
кая	-1063
кло	-1064
клю	-1065
кля	-1066
кро	-1067
кун	-1068
лек	-1069
луй	-1070
ней	-1071
нии	-1072
нул	-1073
няя	-1074
пал	-1075
пор	-1076
раб	-1077
рат	-1078
реб	-1079
рея	-1080
рии	-1081
рят	-1082
сем	-1083
сит	-1084
ска	-1085
сор	-1086
ств	-1087
так	-1088
тно	-1089
три	-1090
тые	-1091
циа	-1092
чел	-1093
чик	-1094
чки	-1095
шла	-1096
щем	-1097
щий	-1098
ыта	-1099
это	-1100
юще	-1101
▁02	-1102
▁18	-1103
▁21	-1104
▁22	-1105
▁31	-1106
▁an	-1107
▁ap	-1108
▁ад	-1109
▁ан	-1110
▁дж	-1111
▁жа	-1112
▁зо	-1113
▁ог	-1114
▁ос	-1115
▁ох	-1116
▁ти	-1117
▁ус	-1118
▁чу	-1119
▁ше	-1120
бери	-1121
бора	-1122
вати	-1123
веро	-1124
вете	-1125
дели	-1126
деть	-1127
дешь	-1128
дишь	-1129
йски	-1130
кото	-1131
круг	-1132
лега	-1133
лива	-1134
лого	-1135
лохо	-1136
льзя	-1137
льше	-1138
любо	-1139
меня	-1140
мина	-1141
мите	-1142
нови	-1143
обще	-1144
пало	-1145
реди	-1146
рети	-1147
рить	-1148
рова	-1149
ружи	-1150
сить	-1151
ссии	-1152
стра	-1153
тери	-1154
тицы	-1155
ходя	-1156
чала	-1157
чина	-1158
чить	-1159
чные	-1160
шься	-1161
щест	-1162
ющим	-1163
▁199	-1164
▁act	-1165
▁not	-1166
▁num	-1167
▁pos	-1168
▁ана	-1169
▁бар	-1170
▁вве	-1171
▁глу	-1172
▁дви	-1173
▁дра	-1174
▁душ	-1175
▁зас	-1176
▁ино	-1177
▁ком	-1178
▁кро	-1179
▁моя	-1180
▁нео	-1181
▁неё	-1182
▁пот	-1183
▁рад	-1184
▁реа	-1185
▁реб	-1186
▁син	-1187
▁спо	-1188
▁сэр	-1189
▁тем	-1190
▁тер	-1191
▁тот	-1192
▁тра	-1193
▁три	-1194
▁удо	-1195
▁уро	-1196
▁чет	-1197
▁шко	-1198
ually	-1199
аллах	-1200
вался	-1201
ведли	-1202
верша	-1203
вести	-1204
ворят	-1205
вычай	-1206
гляни	-1207
годня	-1208
графи	-1209
держи	-1210
дется	-1211
ением	-1212
итать	-1213
кабря	-1214
лагаю	-1215
лость	-1216
льная	-1217
льный	-1218
ников	-1219
полна	-1220
публи	-1221
рушка	-1222
рядке	-1223
ствия	-1224
форма	-1225
хамма	-1226
часть	-1227
чного	-1228
щения	-1229
этому	-1230
▁боже	-1231
▁была	-1232
▁всем	-1233
▁день	-1234
▁доро	-1235
▁зале	-1236
▁идет	-1237
▁итак	-1238
▁каса	-1239
▁либо	-1240
▁маль	-1241
▁мира	-1242
▁муса	-1243
▁небе	-1244
▁ново	-1245
▁ночи	-1246
▁обла	-1247
▁отра	-1248
▁печа	-1249
▁пора	-1250
▁похо	-1251
▁пыта	-1252
▁резо	-1253
▁реши	-1254
▁руку	-1255
▁себе	-1256
▁смеш	-1257
▁спра	-1258
▁сред	-1259
▁суще	-1260
▁теку	-1261
▁теле	-1262
▁туда	-1263
▁ужас	-1264
▁узна	-1265
▁успо	-1266
▁уста	-1267
▁чрез	-1268
▁чёрт	-1269
▁шанс	-1270
▁этой	-1271
▁этом	-1272
вались	-1273
вышний	-1274
ждение	-1275
истину	-1276
казать	-1277
которы	-1278
луйста	-1279
предел	-1280
чество	-1281
▁более	-1282
▁будут	-1283
▁вашей	-1284
▁вашим	-1285
▁видел	-1286
▁восто	-1287
▁добра	-1288
▁добро	-1289
▁жизни	-1290
▁зачем	-1291
▁земле	-1292
▁землю	-1293
▁интер	-1294
▁какие	-1295
▁корми	-1296
▁люблю	-1297
▁места	-1298
▁могли	-1299
▁можно	-1300
▁мужик	-1301
▁навер	-1302
▁напра	-1303
▁наций	-1304
▁оружи	-1305
▁основ	-1306
▁ответ	-1307
▁откры	-1308
▁отчет	-1309
▁позво	-1310
▁помни	-1311
▁послу	-1312
▁пошли	-1313
▁разве	-1314
▁самое	-1315
▁самой	-1316
▁своих	-1317
▁секун	-1318
▁скоро	-1319
▁случа	-1320
▁собой	-1321
▁согла	-1322
▁таких	-1323
▁такой	-1324
▁точки	-1325
▁уверо	-1326
▁усили	-1327
▁уходи	-1328
▁хотел	-1329
▁целях	-1330
▁часть	-1331
держали	-1332
ктивный	-1333
ложения	-1334
любодея	-1335
тельные	-1336
▁number	-1337
▁вообще	-1338
▁дальше	-1339
▁доклад	-1340
▁должно	-1341
▁женщин	-1342
▁завтра	-1343
▁задума	-1344
▁именно	-1345
▁какого	-1346
▁конвен	-1347
▁мистер	-1348
▁нельзя	-1349
▁никого	-1350
▁образо	-1351
▁помощи	-1352
▁почему	-1353
▁принес	-1354
▁програ	-1355
▁прошло	-1356
▁работе	-1357
▁работы	-1358
▁связан	-1359
▁сердца	-1360
▁совсем	-1361
▁состоя	-1362
▁сполна	-1363
▁угодно	-1364
▁услови	-1365
▁участи	-1366
▁хотите	-1367
▁читать	-1368
диненных	-1369
тельства	-1370
▁взгляни	-1371
▁выполня	-1372
▁говорят	-1373
▁давайте	-1374
▁декабря	-1375
▁другими	-1376
▁думаешь	-1377
▁игрушка	-1378
▁информа	-1379
▁конечно	-1380
▁которая	-1381
▁которой	-1382
▁который	-1383
▁милость	-1384
▁мухамма	-1385
▁объясни	-1386
▁осущест	-1387
▁перевод	-1388
▁поможет	-1389
▁порядке	-1390
▁поэтому	-1391
▁принима	-1392
▁сделать	-1393
▁сегодня	-1394
▁соверша	-1395
участника	-1396
▁благодар	-1397
▁возможно	-1398
▁волнуйся	-1399
▁вопросам	-1400
▁говорить	-1401
▁застрели	-1402
▁касается	-1403
▁некоторы	-1404
▁последне	-1405
▁последни	-1406
▁придется	-1407
▁проблема	-1408
▁развития	-1409
▁серьезно	-1410
▁положение	-1411
▁положения	-1412
▁понимаешь	-1413
▁правильно	-1414
▁резолюции	-1415
▁секретаря	-1416
▁чрезвычай	-1417
▁пожалуйста	-1418
▁прелюбодея	-1419
▁предложения	-1420
▁представить	-1421
▁генерального	-1422
▁использовать	-1423
▁объединенных	-1424
▁рассмотрение	-1425
),	-1426
).	-1427
,5	-1428
//	-1429
/1	-1430
/5	-1431
1,	-1432
1.	-1433
14	-1434
19	-1435
28	-1436
80	-1437
:4	-1438
=1	-1439
].	-1440
]:	-1441
ce	-1442
ch	-1443
de	-1444
hp	-1445
hy	-1446
is	-1447
la	-1448
ny	-1449
ow	-1450
pe	-1451
th	-1452
tp	-1453
wl	-1454
yb	-1455
ау	-1456
бр	-1457
дж	-1458
ев	-1459
ек	-1460
ес	-1461
из	-1462
ил	-1463
ин	-1464
йф	-1465
кт	-1466
рм	-1467
рс	-1468
рь	-1469
щу	-1470
эй	-1471
ял	-1472
ագ	-1473
ահ	-1474
▁!	-1475
▁*	-1476
▁7	-1477
▁8	-1478
▁x	-1479
▁y	-1480
▁°	-1481
▁ե	-1482
3:2	-1483
://	-1484
:11	-1485
:19	-1486
:55	-1487
ack	-1488
dar	-1489
dex	-1490
for	-1491
iew	-1492
ine	-1493
ite	-1494
men	-1495
msg	-1496
mul	-1497
oin	-1498
pda	-1499
php	-1500
top	-1501
tre	-1502
ttp	-1503
urr	-1504
аун	-1505
блу	-1506
вка	-1507
вне	-1508
вно	-1509
вот	-1510
все	-1511
вут	-1512
вую	-1513
вши	-1514
гах	-1515
гни	-1516
гое	-1517
дан	-1518
две	-1519
дви	-1520
дец	-1521
дле	-1522
дом	-1523
дух	-1524
дёт	-1525
жаю	-1526
жде	-1527
жди	-1528
жем	-1529
жил	-1530
жим	-1531
жит	-1532
жна	-1533
зей	-1534
зем	-1535
зид	-1536
зов	-1537
ила	-1538
кам	-1539
ках	-1540
кий	-1541
ким	-1542
кну	-1543
ксп	-1544
кти	-1545
кую	-1546
лею	-1547
лиц	-1548
лов	-1549
лоп	-1550
лый	-1551
лыш	-1552
лью	-1553
лят	-1554
мки	-1555
ммы	-1556
мую	-1557
мым	-1558
нал	-1559
нем	-1560
нен	-1561
нер	-1562
нка	-1563
нки	-1564
нош	-1565
нья	-1566
ори	-1567
пку	-1568
пос	-1569
рав	-1570
рак	-1571
рел	-1572
рок	-1573
ром	-1574
рон	-1575
рту	-1576
рук	-1577
рый	-1578
сил	-1579
сия	-1580
сты	-1581
сут	-1582
тан	-1583
тар	-1584
тах	-1585
тец	-1586
тию	-1587
той	-1588
точ	-1589
туа	-1590
ума	-1591
фли	-1592
фор	-1593
фри	-1594
ффе	-1595
хищ	-1596
цию	-1597
чая	-1598
чез	-1599
чек	-1600
чер	-1601
чка	-1602
чёт	-1603
щей	-1604
щую	-1605
ьте	-1606
эти	-1607
юнх	-1608
ясь	-1609
անի	-1610
նախ	-1611
▁+2	-1612
▁06	-1613
▁13	-1614
▁14	-1615
▁15	-1616
▁16	-1617
▁50	-1618
▁55	-1619
▁by	-1620
▁ii	-1621
▁it	-1622
▁to	-1623
▁us	-1624
▁аг	-1625
▁ау	-1626
▁ах	-1627
▁ая	-1628
▁зр	-1629
▁ищ	-1630
▁ки	-1631
▁пя	-1632
▁см	-1633
▁уб	-1634
▁уй	-1635
▁фе	-1636
▁чл	-1637
▁հա	-1638
.]].	-1639
/200	-1640
alen	-1641
anic	-1642
rawl	-1643
бяза	-1644
ваны	-1645
вари	-1646
вают	-1647
верь	-1648
вест	-1649
вида	-1650
виду	-1651
воль	-1652
ворю	-1653
вшей	-1654
гает	-1655
гале	-1656
дает	-1657
дали	-1658
дата	-1659
дать	-1660
дель	-1661
дись	-1662
длер	-1663
дный	-1664
доку	-1665
емой	-1666
емся	-1667
енов	-1668
ента	-1669
енья	-1670
если	-1671
еспе	-1672
етия	-1673
ждый	-1674
жела	-1675
жжен	-1676
звол	-1677
зыке	-1678
исле	-1679
кать	-1680
ковы	-1681
кола	-1682
кому	-1683
коно	-1684
куда	-1685
кции	-1686
ланд	-1687
лыши	-1688
льта	-1689
мали	-1690
мете	-1691
меча	-1692
мира	-1693
мита	-1694
нему	-1695
нете	-1696
нной	-1697
нную	-1698
нова	-1699
ному	-1700
нусь	-1701
ными	-1702
пить	-1703
полн	-1704
пред	-1705
прия	-1706
пять	-1707
рави	-1708
рази	-1709
раси	-1710
реза	-1711
рели	-1712
риод	-1713
роде	-1714
село	-1715
сила	-1716
сква	-1717
ских	-1718
ской	-1719
ском	-1720
стве	-1721
стил	-1722
стро	-1723
стру	-1724
сюда	-1725
тели	-1726
тена	-1727
теря	-1728
того	-1729
трак	-1730
тром	-1731
хани	-1732
хлоп	-1733
чери	-1734
чный	-1735
чным	-1736
шить	-1737
щает	-1738
щему	-1739
щиты	-1740
ющий	-1741
яние	-1742
արար	-1743
▁(1)	-1744
▁and	-1745
▁how	-1746
▁isp	-1747
▁may	-1748
▁why	-1749
▁you	-1750
▁ага	-1751
▁аль	-1752
▁бра	-1753
▁бри	-1754
▁быв	-1755
▁ваш	-1756
▁вид	-1757
▁вме	-1758
▁вст	-1759
▁вто	-1760
▁гли	-1761
▁дай	-1762
▁два	-1763
▁дей	-1764
▁дел	-1765
▁дис	-1766
▁дом	-1767
▁иди	-1768
▁имя	-1769
▁ито	-1770
▁каж	-1771
▁кли	-1772
▁кое	-1773
▁кру	-1774
▁лгу	-1775
▁лиц	-1776
▁мно	-1777
▁муж	-1778
▁над	-1779
▁наш	-1780
▁ого	-1781
▁отп	-1782
▁оче	-1783
▁поо	-1784
▁пор	-1785
▁род	-1786
▁сан	-1787
▁сем	-1788
▁ску	-1789
▁смы	-1790
▁сна	-1791
▁сол	-1792
▁сом	-1793
▁спи	-1794
▁сту	-1795
▁тек	-1796
▁тор	-1797
▁тре	-1798
▁тро	-1799
▁убе	-1800
▁уви	-1801
▁ука	-1802
▁уко	-1803
▁уль	-1804
▁фир	-1805
▁чен	-1806
▁чув	-1807
chine	-1808
ently	-1809
forum	-1810
index	-1811
oined	-1812
topic	-1813
yback	-1814
будут	-1815
вание	-1816
ватит	-1817
верга	-1818
влива	-1819
вляет	-1820
врати	-1821
грани	-1822
дведь	-1823
деюсь	-1824
днего	-1825
еньше	-1826
женна	-1827
йтесь	-1828
клара	-1829
клоня	-1830
кляты	-1831
комен	-1832
матри	-1833
надле	-1834
нение	-1835
нется	-1836
нитар	-1837
раила	-1838
ребно	-1839
рений	-1840
родно	-1841
ского	-1842
споря	-1843
стави	-1844
стато	-1845
ствие	-1846
ствии	-1847
стере	-1848
стите	-1849
ступа	-1850
ступл	-1851
сячел	-1852
фликт	-1853
циаль	-1854
чение	-1855
шайте	-1856
щении	-1857
юнхен	-1858
ющего	-1859
ющими	-1860
▁03:2	-1861
▁1993	-1862
▁2006	-1863
▁2016	-1864
▁curr	-1865
▁http	-1866
▁know	-1867
▁many	-1868
▁maps	-1869
▁post	-1870
▁site	-1871
▁this	-1872
▁upda	-1873
▁view	-1874
▁адре	-1875
▁алан	-1876
▁анге	-1877
▁араб	-1878
▁афри	-1879
▁блин	-1880
▁веру	-1881
▁вещи	-1882
▁взял	-1883
▁виды	-1884
▁вина	-1885
▁вклю	-1886
▁воды	-1887
▁возь	-1888
▁воло	-1889
▁выта	-1890
▁глав	-1891
▁груп	-1892
▁гума	-1893
▁дабы	-1894
▁дево	-1895
▁дети	-1896
▁дога	-1897
▁друг	-1898
▁жаль	-1899
▁заба	-1900
▁знал	-1901
▁иску	-1902
▁исти	-1903
▁коли	-1904
▁кому	-1905
▁кофе	-1906
▁лишь	-1907
▁люби	-1908
▁любо	-1909
▁мама	-1910
▁мать	-1911
▁меди	-1912
▁меры	-1913
▁мини	-1914
▁наси	-1915
▁обсу	-1916
▁обща	-1917
▁особ	-1918
▁отец	-1919
▁отом	-1920
▁отче	-1921
▁пале	-1922
▁план	-1923
▁пови	-1924
▁пода	-1925
▁поза	-1926
▁полу	-1927
▁поме	-1928
▁прео	-1929
▁прис	-1930
▁проя	-1931
▁рада	-1932
▁ради	-1933
▁сами	-1934
▁сени	-1935
▁сест	-1936
▁слож	-1937
▁смог	-1938
▁спас	-1939
▁твой	-1940
▁тому	-1941
▁увер	-1942
▁упор	-1943
▁файл	-1944
▁фара	-1945
▁хими	-1946
▁хрен	-1947
▁черт	-1948
▁эксп	-1949
▁элек	-1950
▁этих	-1951
▁эффе	-1952
▁ясно	-1953
mulous	-1954
rawled	-1955
бежала	-1956
вается	-1957
видете	-1958
вшейся	-1959
ждения	-1960
зидент	-1961
зывать	-1962
кономи	-1963
латить	-1964
личные	-1965
ловать	-1966
менито	-1967
нологи	-1968
привет	-1969
против	-1970
словит	-1971
ствуют	-1972
стигли	-1973
токола	-1974
частье	-1975
чества	-1976
честве	-1977
▁2005,	-1978
▁calen	-1979
▁panic	-1980
▁броса	-1981
▁будем	-1982
▁ваших	-1983
▁возда	-1984
▁вроде	-1985
▁газов	-1986
▁глава	-1987
▁глупо	-1988
▁детей	-1989
▁жертв	-1990
▁жесто	-1991
▁живот	-1992
▁жизнь	-1993
▁заблу	-1994
▁завер	-1995
▁закон	-1996
▁затем	-1997
▁зовут	-1998
▁исчез	-1999
▁ищете	-2000
▁конец	-2001
▁консу	-2002
▁краси	-2003
▁кроме	-2004
▁малыш	-2005
▁место	-2006
▁милая	-2007
▁милый	-2008
▁мисси	-2009
▁много	-2010
▁мусор	-2011
▁народ	-2012
▁невер	-2013
▁непра	-2014
▁никто	-2015
▁номер	-2016
▁норма	-2017
▁нужен	-2018
▁нужна	-2019
▁обита	-2020
▁оказа	-2021
▁опять	-2022
▁отдал	-2023
▁отдел	-2024
▁отнош	-2025
▁перед	-2026
▁плохо	-2027
▁повед	-2028
▁повел	-2029
▁подго	-2030
▁подни	-2031
▁пойти	-2032
▁похищ	-2033
▁права	-2034
▁приго	-2035
▁продл	-2036
▁профе	-2037
▁проце	-2038
▁птицы	-2039
▁рамки	-2040
▁самые	-2041
▁самый	-2042
▁свете	-2043
▁ситуа	-2044
▁слыши	-2045
▁совет	-2046
▁совме	-2047
▁содей	-2048
▁созна	-2049
▁среди	-2050
▁срока	-2051
▁стено	-2052
▁стола	-2053
▁стран	-2054
▁суете	-2055
▁сынов	-2056
▁также	-2057
▁твоей	-2058
▁тобой	-2059
▁точно	-2060
▁умира	-2061
▁утром	-2062
▁участ	-2063
▁файлы	-2064
▁харак	-2065
▁хочет	-2066
▁числе	-2067
▁языке	-2068
галерея	-2069
коменда	-2070
ложение	-2071
полнить	-2072
приятия	-2073
приятно	-2074
публико	-2075
равится	-2076
струмен	-2077
ступник	-2078
тельный	-2079
тельным	-2080
тельств	-2081
тронной	-2082
хлопных	-2083
циально	-2084
ческого	-2085
նախարար	-2086
▁joined	-2087
▁альбом	-2088
▁будешь	-2089
▁вашего	-2090
▁верное	-2091
▁видела	-2092
▁видели	-2093
▁видеть	-2094
▁видишь	-2095
▁вместе	-2096
▁воздух	-2097
▁второй	-2098
▁выбора	-2099
▁выходи	-2100
▁говорю	-2101
▁головы	-2102
▁делаем	-2103
▁дженна	-2104
▁должна	-2105
▁другие	-2106
▁других	-2107
▁другой	-2108
▁жертва	-2109
▁замеча	-2110
▁защиты	-2111
▁звучит	-2112
▁земные	-2113
▁зрения	-2114
▁измени	-2115
▁изменя	-2116
▁имеешь	-2117
▁матери	-2118
▁машину	-2119
▁меньше	-2120
▁можешь	-2121
▁москва	-2122
▁мюнхен	-2123
▁насили	-2124
▁насчёт	-2125
▁начала	-2126
▁начало	-2127
▁начать	-2128
▁начина	-2129
▁небеса	-2130
▁неспра	-2131
▁нечего	-2132
▁обеспе	-2133
▁ограни	-2134
▁органа	-2135
▁отсюда	-2136
▁отчеты	-2137
▁первый	-2138
▁период	-2139
▁пожела	-2140
▁помина	-2141
▁помочь	-2142
▁посвящ	-2143
▁посмот	-2144
▁постоя	-2145
▁потеря	-2146
▁похожи	-2147
▁правду	-2148
▁предпо	-2149
▁прекра	-2150
▁пришел	-2151
▁пройти	-2152
▁прямой	-2153
▁рабоче	-2154
▁садись	-2155
▁сделал	-2156
▁скажет	-2157
▁слышал	-2158
▁смерти	-2159
▁смерть	-2160
▁смешно	-2161
▁сможем	-2162
▁смотри	-2163
▁смысле	-2164
▁спокой	-2165
▁старый	-2166
▁страна	-2167
▁страны	-2168
▁телефо	-2169
▁ультра	-2170
▁усилий	-2171
▁услыша	-2172
▁успока	-2173
▁хватит	-2174
▁ходили	-2175
кларации	-2176
круглого	-2177
ональной	-2178
председа	-2179
статочно	-2180
ственная	-2181
ствовать	-2182
циальных	-2183
▁crawled	-2184
▁machine	-2185
▁updated	-2186
▁wayback	-2187
▁введите	-2188
▁включая	-2189
▁встрети	-2190
▁встреча	-2191
▁выступл	-2192
▁говорит	-2193
▁господа	-2194
▁доклады	-2195
▁дополни	-2196
▁достань	-2197
▁исраила	-2198
▁контрак	-2199
▁которых	-2200
▁мальчик	-2201
▁медведь	-2202
▁молодец	-2203
▁момента	-2204
▁надеюсь	-2205
▁немного	-2206
▁никаких	-2207
▁новости	-2208
▁обожжен	-2209
▁определ	-2210
▁оставил	-2211
▁отвести	-2212
▁писанию	-2213
▁подожди	-2214
▁подписа	-2215
▁поклоня	-2216
▁помнишь	-2217
▁понятно	-2218
▁приятно	-2219
▁пророка	-2220
▁развива	-2221
▁решение	-2222
▁секунду	-2223
▁систему	-2224
▁системы	-2225
▁сказали	-2226
▁сказать	-2227
▁сколько	-2228
▁случаях	-2229
▁сначала	-2230
▁тысячел	-2231
▁указать	-2232
▁участия	-2233
▁хороший	-2234
▁человек	-2235
tremulous	-2236
держивать	-2237
тельности	-2238
тельность	-2239
▁actually	-2240
▁calendar	-2241
▁арабском	-2242
▁великого	-2243
▁воистину	-2244
▁говорили	-2245
▁движения	-2246
▁действия	-2247
▁комитета	-2248
▁конфликт	-2249
▁министер	-2250
▁наверное	-2251
▁оператив	-2252
▁опублико	-2253
▁покаяние	-2254
▁посланни	-2255
▁послушай	-2256
▁потребно	-2257
▁предоста	-2258
▁принадле	-2259
▁продолжи	-2260
▁прокляты	-2261
▁простите	-2262
▁работаем	-2263
▁развитию	-2264
▁согласно	-2265
▁творений	-2266
▁условиях	-2267
▁человека	-2268
▁является	-2269
бязательно	-2270
▁currently	-2271
▁ассамблеи	-2272
▁ассамблея	-2273
▁всевышний	-2274
▁выхлопных	-2275
▁гуманитар	-2276
▁заседаний	-2277
▁заседания	-2278
▁знаменито	-2279
▁игрушками	-2280
▁издержали	-2281
▁инструмен	-2282
▁конвенции	-2283
▁маленькая	-2284
▁мухаммада	-2285
▁некоторые	-2286
▁нормально	-2287
▁ограничен	-2288
▁отомстить	-2289
▁перестань	-2290
▁поговорим	-2291
▁последней	-2292
▁последний	-2293
▁представи	-2294
▁президент	-2295
▁призывает	-2296
▁программы	-2297
▁протокола	-2298
▁процентов	-2299
▁работаешь	-2300
▁различные	-2301
▁рекоменда	-2302
▁связанные	-2303
▁совершать	-2304
▁технологи	-2305
▁уверовали	-2306
▁декларации	-2307
▁достаточно	-2308
▁застрелить	-2309
▁количество	-2310
▁необходимо	-2311
▁посланника	-2312
▁похищенных	-2313
▁предостере	-2314
▁преступник	-2315
▁приложение	-2316
▁стенографи	-2317
▁участников	-2318
▁благословит	-2319
▁генеральная	-2320
▁генеральной	-2321
▁необходимую	-2322
▁несправедли	-2323
▁образования	-2324
▁тысячелетия	-2325
▁фотогалерея	-2326
▁электронной	-2327
▁возвращается	-2328
▁деятельности	-2329
▁замечательно	-2330
▁международно	-2331
▁поддерживать	-2332
▁приветствует	-2333
▁соответствии	-2334
▁международной	-2335
▁международный	-2336
▁успокаиваются	-2337
▁дополнительные	-2338
▁соответствующим	-2339
"!	-2340
'%	-2341
'.	-2342
(,	-2343
):	-2344
,1	-2345
,8	-2346
,]	-2347
-2	-2348
-6	-2349
.)	-2350
.,	-2351
.1	-2352
.:	-2353
/3	-2354
/6	-2355
0%	-2356
0.	-2357
07	-2358
16	-2359
17	-2360
18	-2361
2/	-2362
3)	-2363
33	-2364
45	-2365
5.	-2366
79	-2367
8-	-2368
85	-2369
87	-2370
89	-2371
91	-2372
95	-2373
?"	-2374
?»	-2375
\"	-2376
ad	-2377
ai	-2378
am	-2379
as	-2380
at	-2381
av	-2382
bj	-2383
ci	-2384
di	-2385
ea	-2386
et	-2387
ha	-2388
ht	-2389
ig	-2390
it	-2391
ji	-2392
lo	-2393
ml	-2394
nk	-2395
ol	-2396
oo	-2397
pa	-2398
po	-2399
rc	-2400
rd	-2401
se	-2402
st	-2403
un	-2404
vi	-2405
we	-2406
wo	-2407
ws	-2408
ww	-2409
xt	-2410
ал	-2411
ах	-2412
вё	-2413
гп	-2414
дн	-2415
др	-2416
дш	-2417
ее	-2418
еп	-2419
жо	-2420
зю	-2421
ид	-2422
им	-2423
ип	-2424
йд	-2425
йз	-2426
йк	-2427
йо	-2428
йп	-2429
йс	-2430
кл	-2431
лч	-2432
мл	-2433
мц	-2434
нк	-2435
нт	-2436
ол	-2437
ос	-2438
пл	-2439
рч	-2440
рэ	-2441
рю	-2442
сл	-2443
ср	-2444
сц	-2445
сё	-2446
тл	-2447
тр	-2448
ус	-2449
ут	-2450
фа	-2451
фр	-2452
шл	-2453
шу	-2454
ъя	-2455
ыв	-2456
эг	-2457
эл	-2458
эм	-2459
ээ	-2460
юм	-2461
юш	-2462
яг	-2463
яж	-2464
яю	-2465
ёк	-2466
ём	-2467
ադ	-2468
բե	-2469
բի	-2470
դի	-2471
եր	-2472
խմ	-2473
կի	-2474
▁/	-2475
▁;	-2476
▁?	-2477
▁@	-2478
▁]	-2479
▁r	-2480
▁ц	-2481
▁մ	-2482
*).	-2483
,86	-2484
.1)	-2485
/12	-2486
/61	-2487
00"	-2488
000	-2489
003	-2490
07)	-2491
1),	-2492
1,3	-2493
1/2	-2494
144	-2495
199	-2496
2-2	-2497
217	-2498
3:3	-2499
4,1	-2500
45-	-2501
4:3	-2502
516	-2503
5:4	-2504
6/5	-2505
7/3	-2506
79.	-2507
808	-2508
9:0	-2509
9:2	-2510
:01	-2511
:07	-2512
:16	-2513
:22	-2514
:25	-2515
:28	-2516
:34	-2517
:35	-2518
:43	-2519
:50	-2520
:52	-2521
:56	-2522
:58	-2523
?».	-2524
\".	-2525
aco	-2526
add	-2527
ami	-2528
and	-2529
ate	-2530
bje	-2531
ble	-2532
cat	-2533
cce	-2534
com	-2535
con	-2536
cou	-2537
ery	-2538
htm	-2539
ies	-2540
ink	-2541
kum	-2542
let	-2543
nte	-2544
omo	-2545
opc	-2546
opo	-2547
org	-2548
orr	-2549
pel	-2550
pes	-2551
pre	-2552
rax	-2553
rig	-2554
sas	-2555
tel	-2556
tem	-2557
tle	-2558
umn	-2559
une	-2560
vai	-2561
аме	-2562
ане	-2563
бак	-2564
бби	-2565
без	-2566
бий	-2567
био	-2568
бию	-2569
бка	-2570
бло	-2571
бож	-2572
бот	-2573
бре	-2574
бри	-2575
бта	-2576
буд	-2577
бые	-2578
бый	-2579
бых	-2580
бят	-2581
вар	-2582
вая	-2583
вда	-2584
вин	-2585
вки	-2586
влю	-2587
вое	-2588
воз	-2589
вок	-2590
вол	-2591
вос	-2592
вух	-2593
вца	-2594
вым	-2595
выч	-2596
вью	-2597
вья	-2598
вёр	-2599
гай	-2600
гам	-2601
где	-2602
гие	-2603
гип	-2604
гит	-2605
гия	-2606
глу	-2607
гно	-2608
гру	-2609
гтя	-2610
дам	-2611
два	-2612
дии	-2613
дим	-2614
дио	-2615
дко	-2616
дку	-2617
дой	-2618
док	-2619
дор	-2620
доч	-2621
дри	-2622
дру	-2623
дти	-2624
дто	-2625
дус	-2626
дце	-2627
дья	-2628
езд	-2629
ейк	-2630
ело	-2631
еме	-2632
ену	-2633
еся	-2634
еты	-2635
жаи	-2636
жай	-2637
жая	-2638
жба	-2639
жке	-2640
жли	-2641
жны	-2642
жом	-2643
жья	-2644
зад	-2645
зай	-2646
зах	-2647
зде	-2648
зер	-2649
зжу	-2650
зии	-2651
зин	-2652
зки	-2653
зли	-2654
зни	-2655
зор	-2656
зра	-2657
зре	-2658
зуа	-2659
ики	-2660
ило	-2661
ина	-2662
инс	-2663
ить	-2664
иху	-2665
ищу	-2666
йан	-2667
йди	-2668
йме	-2669
йца	-2670
йцы	-2671
йчи	-2672
кал	-2673
кан	-2674
кар	-2675
кво	-2676
кет	-2677
кки	-2678
кле	-2679
кмо	-2680
кои	-2681
кол	-2682
кси	-2683
ксы	-2684
кул	-2685
куп	-2686
кус	-2687
лиа	-2688
лиз	-2689
лио	-2690
лия	-2691
лке	-2692
лли	-2693
лло	-2694
лль	-2695
лме	-2696
лог	-2697
лоу	-2698
луа	-2699
луб	-2700
льд	-2701
льз	-2702
льш	-2703
лял	-2704
ляр	-2705
мар	-2706
маю	-2707
мая	-2708
мин	-2709
мку	-2710
мли	-2711
мню	-2712
мня	-2713
мое	-2714
мож	-2715
мор	-2716
муж	-2717
мфи	-2718
нам	-2719
нас	-2720
нат	-2721
нга	-2722
ндр	-2723
нды	-2724
нее	-2725
неу	-2726
нец	-2727
нит	-2728
нож	-2729
нок	-2730
нро	-2731
нси	-2732
нца	-2733
нцы	-2734
няг	-2735
няк	-2736
няч	-2737
обо	-2738
ода	-2739
одс	-2740
оза	-2741
онн	-2742
ора	-2743
ору	-2744
пах	-2745
пии	-2746
пки	-2747
плю	-2748
пля	-2749
под	-2750
пок	-2751
пот	-2752
ппа	-2753
ппо	-2754
пря	-2755
пти	-2756
пцы	-2757
пыт	-2758
пыш	-2759
пью	-2760
пят	-2761
раз	-2762
рам	-2763
рас	-2764
рей	-2765
рет	-2766
реш	-2767
рже	-2768
рик	-2769
рин	-2770
рия	-2771
рме	-2772
рот	-2773
рсе	-2774
рта	-2775
рыг	-2776
рье	-2777
сал	-2778
сеи	-2779
сек	-2780
сер	-2781
сми	-2782
сна	-2783
сны	-2784
сок	-2785
сом	-2786
сон	-2787
сур	-2788
схо	-2789
счи	-2790
сьм	-2791
сяц	-2792
там	-2793
тей	-2794
тет	-2795
тех	-2796
тий	-2797
тим	-2798
тки	-2799
тор	-2800
тук	-2801
тый	-2802
тью	-2803
тья	-2804
уме	-2805
ути	-2806
учи	-2807
фис	-2808
фов	-2809
хие	-2810
хли	-2811
хне	-2812
хой	-2813
хом	-2814
хся	-2815
цах	-2816
црт	-2817
цуз	-2818
цце	-2819
чал	-2820
чии	-2821
чий	-2822
чих	-2823
чищ	-2824
чня	-2825
чре	-2826
чты	-2827
чув	-2828
чут	-2829
чую	-2830
шал	-2831
шат	-2832
шаф	-2833
шая	-2834
шек	-2835
шие	-2836
шим	-2837
шин	-2838
шой	-2839
шцы	-2840
щая	-2841
щее	-2842
щен	-2843
щик	-2844
ыду	-2845
ыла	-2846
ыре	-2847
ьют	-2848
ьям	-2849
эту	-2850
юан	-2851
юдж	-2852
юля	-2853
юте	-2854
ябе	-2855
яже	-2856
яза	-2857
яку	-2858
ями	-2859
ёте	-2860
ադր	-2861
ահկ	-2862
ահն	-2863
ման	-2864
▁".	-2865
▁#1	-2866
▁'%	-2867
▁--	-2868
▁01	-2869
▁08	-2870
▁17	-2871
▁2)	-2872
▁2.	-2873
▁23	-2874
▁25	-2875
▁26	-2876
▁37	-2877
▁5.	-2878
▁69	-2879
▁91	-2880
▁[,	-2881
▁\"	-2882
▁br	-2883
▁do	-2884
▁ee	-2885
▁en	-2886
▁ev	-2887
▁go	-2888
▁in	-2889
▁la	-2890
▁lo	-2891
▁mo	-2892
▁su	-2893
▁ty	-2894
▁вп	-2895
▁гм	-2896
▁ер	-2897
▁зд	-2898
▁иб	-2899
▁ль	-2900
▁мм	-2901
▁пр	-2902
▁пь	-2903
▁ры	-2904
▁ря	-2905
▁сф	-2906
▁тт	-2907
▁уе	-2908
▁уж	-2909
▁ух	-2910
▁хи	-2911
▁хр	-2912
▁ху	-2913
▁ца	-2914
▁ци	-2915
▁ще	-2916
▁эк	-2917
▁эм	-2918
▁ян	-2919
▁яр	-2920
▁ќа	-2921
▁ագ	-2922
▁ար	-2923
▁խմ	-2924
.1).	-2925
.]],	-2926
/114	-2927
/233	-2928
/51.	-2929
00:0	-2930
2144	-2931
4:31	-2932
5:44	-2933
87),	-2934
9:09	-2935
9:27	-2936
:00"	-2937
=128	-2938
aved	-2939
conf	-2940
entr	-2941
ents	-2942
etwe	-2943
ings	-2944
ionn	-2945
ment	-2946
menu	-2947
neta	-2948
news	-2949
next	-2950
nown	-2951
nter	-2952
ossg	-2953
radi	-2954
revi	-2955
адца	-2956
ален	-2957
арея	-2958
бави	-2959
баты	-2960
бегу	-2961
беду	-2962
беет	-2963
беля	-2964
бесе	-2965
били	-2966
блюд	-2967
бога	-2968
боже	-2969
боск	-2970
брал	-2971
было	-2972
бята	-2973
вает	-2974
вала	-2975
вана	-2976
вата	-2977
вели	-2978
вера	-2979
вери	-2980
веща	-2981
вздо	-2982
види	-2983
вили	-2984
вицы	-2985
влен	-2986
влет	-2987
влял	-2988
вобо	-2989
вога	-2990
вого	-2991
води	-2992
воду	-2993
вост	-2994
вото	-2995
вста	-2996
вули	-2997
выва	-2998
выми	-2999
выша	-3000
гаду	-3001
гами	-3002
гапу	-3003
гать	-3004
гают	-3005
гети	-3006
гина	-3007
гнал	-3008
гого	-3009
годи	-3010
гута	-3011
дала	-3012
даря	-3013
даты	-3014
деле	-3015
дера	-3016
джер	-3017
дина	-3018
дины	-3019
дкий	-3020
дним	-3021
дном	-3022
дняя	-3023
добр	-3024
дого	-3025
доле	-3026
дрое	-3027
думы	-3028
дуры	-3029
дшем	-3030
евых	-3031
езжа	-3032
ейла	-3033
ейру	-3034
екта	-3035
емая	-3036
емом	-3037
емон	-3038
емым	-3039
енка	-3040
енок	-3041
ентя	-3042
еред	-3043
ерка	-3044
ерме	-3045
ерёт	-3046
есть	-3047
етер	-3048
етки	-3049
жали	-3050
жать	-3051
ждей	-3052
ждую	-3053
жели	-3054
жени	-3055
жено	-3056
жены	-3057
жисс	-3058
жить	-3059
жняя	-3060
жуба	-3061
жусь	-3062
зает	-3063
заме	-3064
зарт	-3065
звал	-3066
зьте	-3067
зюме	-3068
зяин	-3069
изно	-3070
имен	-3071
инов	-3072
инте	-3073
исте	-3074
йдем	-3075
йзек	-3076
йоне	-3077
йпер	-3078
кает	-3079
кажи	-3080
кали	-3081
каль	-3082
кари	-3083
квой	-3084
кими	-3085
коит	-3086
комо	-3087
конн	-3088
ксов	-3089
ктор	-3090
кция	-3091
лама	-3092
ланы	-3093
лачу	-3094
леба	-3095
ледо	-3096
лесо	-3097
лесы	-3098
лета	-3099
лизи	-3100
лина	-3101
лити	-3102
лить	-3103
лицы	-3104
ломл	-3105
лоть	-3106
луба	-3107
лует	-3108
лужи	-3109
луша	-3110
лыли	-3111
любл	-3112
люсь	-3113
лючи	-3114
люше	-3115
лять	-3116
ляхе	-3117
ляхи	-3118
ляют	-3119
мати	-3120
меем	-3121
мере	-3122
мест	-3123
ммам	-3124
моза	-3125
мули	-3126
мусе	-3127
мцгп	-3128
мышл	-3129
нату	-3130
наус	-3131
нбер	-3132
нева	-3133
немо	-3134
нетт	-3135
нием	-3136
ники	-3137
нили	-3138
нимо	-3139
ниму	-3140
нись	-3141
ницы	-3142
нное	-3143
нный	-3144
новя	-3145
норс	-3146
норы	-3147
нула	-3148
нуту	-3149
нхет	-3150
ньше	-3151
няка	-3152
нять	-3153
няют	-3154
олно	-3155
пать	-3156
пени	-3157
печа	-3158
пеша	-3159
пила	-3160
пимо	-3161
пита	-3162
пове	-3163
полу	-3164
похо	-3165
преж	-3166
прил	-3167
ража	-3168
раже	-3169
раза	-3170
рама	-3171
расс	-3172
раст	-3173
ребл	-3174
ребы	-3175
регу	-3176
редь	-3177
реми	-3178
ренд	-3179
рены	-3180
реть	-3181
реха	-3182
рехи	-3183
речь	-3184
реши	-3185
решь	-3186
риан	-3187
рила	-3188
рито	-3189
рица	-3190
риях	-3191
рльз	-3192
рмам	-3193
рмии	-3194
рнер	-3195
рода	-3196
рожи	-3197
роит	-3198
роля	-3199
роны	-3200
рота	-3201
роши	-3202
рошо	-3203
рточ	-3204
руби	-3205
руга	-3206
рудо	-3207
рует	-3208
рчли	-3209
рыва	-3210
рьбы	-3211
рэди	-3212
ряды	-3213
ряса	-3214
сами	-3215
свет	-3216
свящ	-3217
сели	-3218
сихо	-3219
ские	-3220
ский	-3221
скоп	-3222
слан	-3223
сним	-3224
ссом	-3225
ссор	-3226
став	-3227
стах	-3228
степ	-3229
стие	-3230
стин	-3231
стка	-3232
стно	-3233
стов	-3234
сток	-3235
стся	-3236
стые	-3237
стый	-3238
стях	-3239
сьба	-3240
таке	-3241
твра	-3242
тера	-3243
тере	-3244
тиви	-3245
тира	-3246
тиро	-3247
тное	-3248
тной	-3249
това	-3250
тоды	-3251
тоне	-3252
точи	-3253
трик	-3254
трос	-3255
ттер	-3256
тчел	-3257
тьей	-3258
убий	-3259
утко	-3260
фиги	-3261
хнул	-3262
хода	-3263
ходы	-3264
хожу	-3265
хоть	-3266
цами	-3267
цаны	-3268
цело	-3269
цией	-3270
цион	-3271
чали	-3272
чера	-3273
чика	-3274
чину	-3275
чиню	-3276
чная	-3277
чудо	-3278
шали	-3279
шива	-3280
шкам	-3281
шмар	-3282
шней	-3283
шнит	-3284
щего	-3285
щина	-3286
щить	-3287
ыска	-3288
эгги	-3289
эрри	-3290
юмск	-3291
юшку	-3292
ющую	-3293
явля	-3294
ятся	-3295
ящих	-3296
ёнка	-3297
ённо	-3298
ётся	-3299
ախագ	-3300
անդի	-3301
երին	-3302
▁+18	-3303
▁+19	-3304
▁+20	-3305
▁+24	-3306
▁000	-3307
▁1'.	-3308
▁10.	-3309
▁100	-3310
▁15,	-3311
▁18,	-3312
▁18.	-3313
▁19,	-3314
▁2,5	-3315
▁22,	-3316
▁226	-3317
▁28-	-3318
▁3-6	-3319
▁4,5	-3320
▁500	-3321
▁689	-3322
▁70%	-3323
▁;(,	-3324
▁apr	-3325
▁bce	-3326
▁cit	-3327
▁col	-3328
▁don	-3329
▁gps	-3330
▁jul	-3331
▁let	-3332
▁mon	-3333
▁oct	-3334
▁one	-3335
▁rom	-3336
▁sep	-3337
▁thu	-3338
▁two	-3339
▁unk	-3340
▁wed	-3341
▁www	-3342
▁xml	-3343
▁аду	-3344
▁арм	-3345
▁аян	-3346
▁бди	-3347
▁бил	-3348
▁блю	-3349
▁бои	-3350
▁бол	-3351
▁вау	-3352
▁вед	-3353
▁вле	-3354
▁вой	-3355
▁вра	-3356
▁вре	-3357
▁всю	-3358
▁вый	-3359
▁выс	-3360
▁выц	-3361
▁гра	-3362
▁дал	-3363
▁дед	-3364
▁джи	-3365
▁дик	-3366
▁днк	-3367
▁док	-3368
▁дре	-3369
▁дср	-3370
▁жан	-3371
▁жив	-3372
▁жми	-3373
▁зве	-3374
▁зда	-3375
▁иде	-3376
▁идо	-3377
▁изо	-3378
▁изу	-3379
▁исс	-3380
▁кви	-3381
▁кер	-3382
▁кла	-3383
▁кно	-3384
▁кол	-3385
▁лей	-3386
▁лик	-3387
▁мам	-3388
▁ман	-3389
▁мел	-3390
▁мог	-3391
▁моё	-3392
▁мур	-3393
▁мэй	-3394
▁мяг	-3395
▁нав	-3396
▁наж	-3397
▁ней	-3398
▁неу	-3399
▁нею	-3400
▁нос	-3401
▁оба	-3402
▁ожи	-3403
▁оно	-3404
▁ост	-3405
▁оча	-3406
▁оше	-3407
▁ощу	-3408
▁пло	-3409
▁поз	-3410
▁пон	-3411
▁рес	-3412
▁реш	-3413
▁рик	-3414
▁рон	-3415
▁рту	-3416
▁рук	-3417
▁сад	-3418
▁сви	-3419
▁сде	-3420
▁сив	-3421
▁сил	-3422
▁соб	-3423
▁соз	-3424
▁спу	-3425
▁ссы	-3426
▁стр	-3427
▁сэм	-3428
▁таз	-3429
▁тва	-3430
▁тел	-3431
▁тип	-3432
▁уез	-3433
▁уил	-3434
▁ули	-3435
▁улы	-3436
▁ума	-3437
▁уму	-3438
▁уни	-3439
▁упо	-3440
▁ура	-3441
▁усы	-3442
▁уто	-3443
▁уче	-3444
▁фбр	-3445
▁фею	-3446
▁фэй	-3447
▁хар	-3448
▁хмм	-3449
▁хри	-3450
▁чай	-3451
▁час	-3452
▁чеш	-3453
▁шаг	-3454
▁шел	-3455
▁шеф	-3456
▁шот	-3457
▁шпи	-3458
▁эту	-3459
▁юго	-3460
▁югу	-3461
▁ямы	-3462
▁ќеп	-3463
▁ќна	-3464
▁ադր	-3465
▁մին	-3466
/122/	-3467
3:33)	-3468
5160.	-3469
7/300	-3470
bject	-3471
ciate	-3472
eryth	-3473
kumji	-3474
lable	-3475
sasha	-3476
thrax	-3477
urent	-3478
англи	-3479
ббиты	-3480
белью	-3481
блоки	-3482
больш	-3483
боров	-3484
бость	-3485
бриэл	-3486
будже	-3487
бытий	-3488
важно	-3489
вайся	-3490
вандо	-3491
ванию	-3492
ванно	-3493
варам	-3494
варий	-3495
ватьс	-3496
ведни	-3497
верке	-3498
веряю	-3499
ветит	-3500
вздох	-3501
визуа	-3502
висит	-3503
влены	-3504
влять	-3505
внего	-3506
водку	-3507
восто	-3508
вость	-3509
враам	-3510
встан	-3511
вяной	-3512
вящая	-3513
гаеть	-3514
газин	-3515
гиона	-3516
гипет	-3517
глаша	-3518
глубл	-3519
гните	-3520
говал	-3521
говор	-3522
груши	-3523
гтями	-3524
даком	-3525
далее	-3526
дарка	-3527
двигу	-3528
демте	-3529
дента	-3530
диего	-3531
димся	-3532
дники	-3533
дницу	-3534
дован	-3535
довой	-3536
дочку	-3537
думай	-3538
думаю	-3539
дьмая	-3540
егодн	-3541
емеры	-3542
енави	-3543
енная	-3544
енные	-3545
ертов	-3546
ерьмо	-3547
етали	-3548
етесь	-3549
жалею	-3550
жался	-3551
жащий	-3552
ждает	-3553
жигай	-3554
жливы	-3555
зание	-3556
звоню	-3557
здоро	-3558
зиции	-3559
зиция	-3560
знана	-3561
зывал	-3562
имным	-3563
ирной	-3564
итары	-3565
йские	-3566
йский	-3567
карня	-3568
квояж	-3569
клады	-3570
кнули	-3571
ковод	-3572
ковые	-3573
конец	-3574
коном	-3575
конча	-3576
кость	-3577
крати	-3578
крого	-3579
кроет	-3580
купка	-3581
ланса	-3582
латим	-3583
лаясь	-3584
лезни	-3585
лекса	-3586
лигия	-3587
лицей	-3588
лодно	-3589
ложил	-3590
лонен	-3591
лубую	-3592
лучше	-3593
лчком	-3594
льным	-3595
ляешь	-3596
майся	-3597
минаю	-3598
мотра	-3599
мушек	-3600
награ	-3601
нальд	-3602
нений	-3603
несен	-3604
несли	-3605
нести	-3606
несут	-3607
нетом	-3608
нинга	-3609
новат	-3610
новил	-3611
ногла	-3612
носит	-3613
ность	-3614
нсент	-3615
нящий	-3616
образ	-3617
одане	-3618
отвер	-3619
отлож	-3620
падет	-3621
писки	-3622
питан	-3623
пляры	-3624
подро	-3625
покло	-3626
понки	-3627
почка	-3628
предь	-3629
преля	-3630
проду	-3631
проса	-3632
проси	-3633
проти	-3634
прята	-3635
птицы	-3636
пуска	-3637
пышки	-3638
пьюте	-3639
ребри	-3640
ревно	-3641
редил	-3642
резго	-3643
ренка	-3644
ренёк	-3645
рести	-3646
риалы	-3647
риана	-3648
риано	-3649
риата	-3650
рипти	-3651
ровая	-3652
ровки	-3653
ровью	-3654
рожда	-3655
рожны	-3656
рукты	-3657
рушал	-3658
рячий	-3659
рящих	-3660
сдела	-3661
скива	-3662
сколь	-3663
скоре	-3664
скоши	-3665
следо	-3666
совал	-3667
совой	-3668
сонал	-3669
сочай	-3670
сочек	-3671
спорт	-3672
става	-3673
стами	-3674
стати	-3675
стимы	-3676
стный	-3677
стран	-3678
ступи	-3679
суаль	-3680
сунки	-3681
сходе	-3682
сцени	-3683
счисл	-3684
сёлая	-3685
таким	-3686
телей	-3687
телем	-3688
телям	-3689
товки	-3690
точку	-3691
троль	-3692
тчелл	-3693
тября	-3694
умень	-3695
умное	-3696
утишь	-3697
ующих	-3698
факти	-3699
фикси	-3700
форда	-3701
ходна	-3702
хотим	-3703
ценке	-3704
чемся	-3705
чером	-3706
чивую	-3707
чикам	-3708
чиная	-3709
шаете	-3710
щений	-3711
щетой	-3712
щиеся	-3713
щихся	-3714
ылали	-3715
этума	-3716
юансы	-3717
ябеде	-3718
яжело	-3719
▁"...	-3720
▁(*).	-3721
▁(199	-3722
▁1495	-3723
▁1980	-3724
▁1985	-3725
▁1998	-3726
▁2000	-3727
▁2001	-3728
▁2009	-3729
▁2010	-3730
▁245-	-3731
▁2:28	-3732
▁3:22	-3733
▁3:34	-3734
▁44,1	-3735
▁4:50	-3736
▁51,3	-3737
▁6:11	-3738
▁8:55	-3739
▁911.	-3740
▁avai	-3741
▁corr	-3742
▁ecce	-3743
▁entr	-3744
▁homo	-3745
▁june	-3746
▁orig	-3747
▁they	-3748
▁xopo	-3749
▁азии	-3750
▁алла	-3751
▁алло	-3752
▁анна	-3753
▁аппа	-3754
▁асси	-3755
▁базо	-3756
▁баки	-3757
▁бако	-3758
▁благ	-3759
▁бойф	-3760
▁босс	-3761
▁брат	-3762
▁брук	-3763
▁бюдж	-3764
▁бяку	-3765
▁валя	-3766
▁вами	-3767
▁ваша	-3768
▁ваше	-3769
▁введ	-3770
▁ввел	-3771
▁вере	-3772
▁верх	-3773
▁верю	-3774
▁весь	-3775
▁взло	-3776
▁взор	-3777
▁виду	-3778
▁вижу	-3779
▁вкус	-3780
▁влия	-3781
▁воля	-3782
▁вонь	-3783
▁вста	-3784
▁выда	-3785
▁выно	-3786
▁выра	-3787
▁выше	-3788
▁газу	-3789
▁году	-3790
▁гони	-3791
▁даже	-3792
▁дана	-3793
▁дару	-3794
▁дать	-3795
▁двен	-3796
▁двор	-3797
▁двух	-3798
▁деву	-3799
▁деле	-3800
▁дело	-3801
▁дену	-3802
▁джим	-3803
▁джон	-3804
▁дире	-3805
▁дней	-3806
▁добы	-3807
▁доку	-3808
▁доме	-3809
▁дура	-3810
▁едва	-3811
▁един	-3812
▁езжу	-3813
▁ждал	-3814
▁ждем	-3815
▁жела	-3816
▁жена	-3817
▁жива	-3818
▁живы	-3819
▁жить	-3820
▁зада	-3821
▁запа	-3822
▁звер	-3823
▁злоу	-3824
▁зови	-3825
▁игре	-3826
▁идея	-3827
▁идти	-3828
▁идёт	-3829
▁икмо	-3830
▁икро	-3831
▁имею	-3832
▁инди	-3833
▁исто	-3834
▁июля	-3835
▁каза	-3836
▁кайф	-3837
▁квар	-3838
▁киев	-3839
▁кита	-3840
▁котл	-3841
▁крат	-3842
▁креш	-3843
▁круг	-3844
▁курс	-3845
▁куча	-3846
▁кэти	-3847
▁ланд	-3848
▁лгут	-3849
▁лега	-3850
▁лета	-3851
▁лили	-3852
▁липа	-3853
▁лиса	-3854
▁лицо	-3855
▁лицу	-3856
▁ложе	-3857
▁льду	-3858
▁люси	-3859
▁ляхи	-3860
▁майк	-3861
▁мако	-3862
▁марк	-3863
▁марш	-3864
▁мате	-3865
▁меда	-3866
▁мель	-3867
▁мене	-3868
▁мере	-3869
▁меро	-3870
▁мета	-3871
▁мидо	-3872
▁мисс	-3873
▁моей	-3874
▁моим	-3875
▁моих	-3876
▁морю	-3877
▁мужа	-3878
▁мужу	-3879
▁мусы	-3880
▁наци	-3881
▁наше	-3882
▁недо	-3883
▁нему	-3884
▁ниже	-3885
▁нина	-3886
▁нокс	-3887
▁ночь	-3888
▁обид	-3889
▁обно	-3890
▁обой	-3891
▁овца	-3892
▁огня	-3893
▁одно	-3894
▁одну	-3895
▁окей	-3896
▁оппо	-3897
▁осме	-3898
▁осто	-3899
▁отка	-3900
▁отку	-3901
▁отча	-3902
▁офис	-3903
▁охра	-3904
▁очищ	-3905
▁очки	-3906
▁папа	-3907
▁папы	-3908
▁пари	-3909
▁пита	-3910
▁поки	-3911
▁поне	-3912
▁поощ	-3913
▁почи	-3914
▁пути	-3915
▁пуши	-3916
▁пять	-3917
▁рево	-3918
▁реза	-3919
▁резу	-3920
▁рейс	-3921
▁реку	-3922
▁речь	-3923
▁роли	-3924
▁росс	-3925
▁рыть	-3926
▁свед	-3927
▁свер	-3928
▁свой	-3929
▁сгни	-3930
▁сень	-3931
▁сири	-3932
▁смех	-3933
▁софи	-3934
▁сочи	-3935
▁срав	-3936
▁срок	-3937
▁стал	-3938
▁стол	-3939
▁стро	-3940
▁сука	-3941
▁суры	-3942
▁сфор	-3943
▁счет	-3944
▁сына	-3945
▁тано	-3946
▁твое	-3947
▁твои	-3948
▁тихо	-3949
▁тоже	-3950
▁тран	-3951
▁трех	-3952
▁трой	-3953
▁труп	-3954
▁тусо	-3955
▁убей	-3956
▁убил	-3957
▁убой	-3958
▁увол	-3959
▁удел	-3960
▁уйду	-3961
▁уйти	-3962
▁умен	-3963
▁умер	-3964
▁умру	-3965
▁упра	-3966
▁уров	-3967
▁усто	-3968
▁учит	-3969
▁учре	-3970
▁ушел	-3971
▁фина	-3972
▁фран	-3973
▁фрон	-3974
▁ходе	-3975
▁хоте	-3976
▁хотя	-3977
▁цари	-3978
▁цену	-3979
▁цикл	-3980
▁чече	-3981
▁шеве	-3982
▁штук	-3983
▁энер	-3984
▁эрен	-3985
▁эрик	-3986
▁этим	-3987
▁юсти	-3988
▁яйца	-3989
▁ясны	-3990
▁ящик	-3991
▁եահկ	-3992
▁խմբի	-3993
2-2003	-3994
214428	-3995
217808	-3996
6/507)	-3997
cation	-3998
etween	-3999
tember	-4000
адцать	-4001
альный	-4002
бедать	-4003
берите	-4004
берпре	-4005
биолог	-4006
бражаю	-4007
братья	-4008
брежет	-4009
ваемой	-4010
валить	-4011
варены	-4012
ватать	-4013
ведные	-4014
вестно	-4015
ветают	-4016
вильно	-4017
винины	-4018
влении	-4019
вливаю	-4020
вляясь	-4021
водить	-4022
водком	-4023
вольны	-4024
ворили	-4025
воточа	-4026
вратил	-4027
вшийся	-4028
вшихся	-4029
вычную	-4030
вышает	-4031
вёртом	-4032
гапура	-4033
гаться	-4034
гетика	-4035
гичной	-4036
глянул	-4037
годные	-4038
графия	-4039
графов	-4040
грации	-4041
давать	-4042
даться	-4043
держке	-4044
дители	-4045
дникам	-4046
дности	-4047
дность	-4048
доволь	-4049
долели	-4050
домных	-4051
дрился	-4052
другое	-4053
дукции	-4054
думать	-4055
дующие	-4056
ездках	-4057
езжаем	-4058
ейрута	-4059
ектами	-4060
еркала	-4061
етаной	-4062
жайший	-4063
жданам	-4064
ждению	-4065
жденно	-4066
женные	-4067
жество	-4068
жиссер	-4069
зочной	-4070
зраков	-4071
именее	-4072
истине	-4073
йчивые	-4074
каждый	-4075
ключен	-4076
коится	-4077
краски	-4078
крытые	-4079
ктикой	-4080
кторов	-4081
куссии	-4082
ландцы	-4083
ланных	-4084
латили	-4085
легами	-4086
лесыми	-4087
ллиона	-4088
ловник	-4089
ложить	-4090
лосьев	-4091
льному	-4092
мавера	-4093
менено	-4094
менных	-4095
местил	-4096
местку	-4097
можных	-4098
муника	-4099
мфибию	-4100
настоя	-4101
нберре	-4102
нетесь	-4103
никами	-4104
нимает	-4105
нимают	-4106
новила	-4107
ножной	-4108
ностью	-4109
нулась	-4110
нуются	-4111
нячков	-4112
обосно	-4113
оритет	-4114
печаты	-4115
писано	-4116
писать	-4117
порции	-4118
посред	-4119
похоже	-4120
почему	-4121
претов	-4122
пример	-4123
продол	-4124
пустил	-4125
пыткой	-4126
рабаты	-4127
раблях	-4128
разили	-4129
ралась	-4130
ранник	-4131
редную	-4132
резано	-4133
ретают	-4134
ретили	-4135
ретные	-4136
рехами	-4137
речься	-4138
рингит	-4139
ромное	-4140
ротвор	-4141
рошины	-4142
ртуоза	-4143
рыгнул	-4144
рьевым	-4145
саются	-4146
селона	-4147
сессии	-4148
сестра	-4149
смином	-4150
совали	-4151
ставим	-4152
стаива	-4153
ствами	-4154
степри	-4155
стиане	-4156
стовка	-4157
сторон	-4158
стрека	-4159
ступай	-4160
ступок	-4161
сурсов	-4162
танции	-4163
тельна	-4164
тенант	-4165
тованы	-4166
товили	-4167
торных	-4168
тоскоп	-4169
точили	-4170
учился	-4171
ццерии	-4172
чается	-4173
частья	-4174
ческое	-4175
ческой	-4176
ческом	-4177
чинами	-4178
шафтах	-4179
щенный	-4180
ъявить	-4181
ыдущих	-4182
ющихся	-4183
являем	-4184
▁(00:0	-4185
▁01:11	-4186
▁02:35	-4187
▁02:43	-4188
▁02:58	-4189
▁03:24	-4190
▁03:28	-4191
▁04:31	-4192
▁05:44	-4193
▁06:25	-4194
▁06:52	-4195
▁08:55	-4196
▁09:27	-4197
▁10:01	-4198
▁10:19	-4199
▁15:19	-4200
▁16:16	-4201
▁2011,	-4202
▁2015.	-4203
▁21:07	-4204
▁21:56	-4205
▁29:09	-4206
▁69,86	-4207
▁appel	-4208
▁appre	-4209
▁bring	-4210
▁doing	-4211
▁encou	-4212
▁gradi	-4213
▁posts	-4214
▁previ	-4215
▁saved	-4216
▁these	-4217
▁think	-4218
▁title	-4219
▁types	-4220
▁whyte	-4221
▁абеля	-4222
▁агент	-4223
▁адлер	-4224
▁адрес	-4225
▁азарт	-4226
▁айзек	-4227
▁акции	-4228
▁армии	-4229
▁астро	-4230
▁атаке	-4231
▁аудио	-4232
▁аятом	-4233
▁бакул	-4234
▁балке	-4235
▁барби	-4236
▁берёт	-4237
▁беспо	-4238
▁блага	-4239
▁ближе	-4240
▁блять	-4241
▁божья	-4242
▁болят	-4243
▁брату	-4244
▁брось	-4245
▁будто	-4246
▁важно	-4247
▁ввиду	-4248
▁везде	-4249
▁вести	-4250
▁ветер	-4251
▁вечер	-4252
▁вещей	-4253
▁влюбл	-4254
▁внима	-4255
▁вовсе	-4256
▁возле	-4257
▁волос	-4258
▁воору	-4259
▁вчера	-4260
▁выйти	-4261
▁выпал	-4262
▁гений	-4263
▁глину	-4264
▁глины	-4265
▁годов	-4266
▁город	-4267
▁готов	-4268
▁грехи	-4269
▁грошо	-4270
▁груди	-4271
▁грудь	-4272
▁дадим	-4273
▁даете	-4274
▁дайте	-4275
▁двери	-4276
▁дверь	-4277
▁демон	-4278
▁дерек	-4279
▁держу	-4280
▁детка	-4281
▁джейк	-4282
▁джона	-4283
▁джуба	-4284
▁добры	-4285
▁домах	-4286
▁дости	-4287
▁дошла	-4288
▁драка	-4289
▁дрожи	-4290
▁друга	-4291
▁думал	-4292
▁душам	-4293
▁едины	-4294
▁жажду	-4295
▁ждете	-4296
▁жутко	-4297
▁забра	-4298
▁завод	-4299
▁займе	-4300
▁закол	-4301
▁замуж	-4302
▁засеи	-4303
▁зашли	-4304
▁звуку	-4305
▁здрав	-4306
▁земля	-4307
▁злюсь	-4308
▁знаем	-4309
▁знает	-4310
▁знают	-4311
▁игрок	-4312
▁имеет	-4313
▁имели	-4314
▁имени	-4315
▁иметь	-4316
▁имеют	-4317
▁испра	-4318
▁итоге	-4319
▁какая	-4320
▁какое	-4321
▁каком	-4322
▁какую	-4323
▁калла	-4324
▁камин	-4325
▁камни	-4326
▁клуба	-4327
▁ключи	-4328
▁кокон	-4329
▁колею	-4330
▁конца	-4331
▁копии	-4332
▁коран	-4333
▁кошка	-4334
▁круто	-4335
▁куинс	-4336
▁купцы	-4337
▁курсе	-4338
▁кухне	-4339
▁кэрри	-4340
▁ловлю	-4341
▁лорел	-4342
▁любил	-4343
▁любое	-4344
▁любой	-4345
▁любом	-4346
▁любую	-4347
▁любые	-4348
▁любят	-4349
▁мария	-4350
▁марси	-4351
▁марта	-4352
▁марти	-4353
▁масло	-4354
▁машин	-4355
▁месяц	-4356
▁микки	-4357
▁могла	-4358
▁моего	-4359
▁моему	-4360
▁можем	-4361
▁мозли	-4362
▁монро	-4363
▁мысли	-4364
▁мышцы	-4365
▁мэгги	-4366
▁наблю	-4367
▁назад	-4368
▁наиху	-4369
▁найти	-4370
▁напал	-4371
▁наряд	-4372
▁насла	-4373
▁насту	-4374
▁начал	-4375
▁наших	-4376
▁нашла	-4377
▁нашло	-4378
▁небес	-4379
▁невоз	-4380
▁нездо	-4381
▁необы	-4382
▁неофи	-4383
▁непал	-4384
▁никак	-4385
▁ниспо	-4386
▁новые	-4387
▁новых	-4388
▁ножом	-4389
▁нолан	-4390
▁норме	-4391
▁обвин	-4392
▁обеты	-4393
▁обоих	-4394
▁общем	-4395
▁общую	-4396
▁обяза	-4397
▁овули	-4398
▁огнем	-4399
▁огонь	-4400
▁одина	-4401
▁одним	-4402
▁одних	-4403
▁одной	-4404
▁отвед	-4405
▁отвер	-4406
▁отдан	-4407
▁отеля	-4408
▁отсле	-4409
▁офиги	-4410
▁палец	-4411
▁папки	-4412
▁папку	-4413
▁парка	-4414
▁парни	-4415
▁песни	-4416
▁письм	-4417
▁плачу	-4418
▁плюше	-4419
▁получ	-4420
▁помню	-4421
▁понял	-4422
▁порно	-4423
▁поста	-4424
▁поток	-4425
▁почты	-4426
▁почув	-4427
▁пошел	-4428
▁праву	-4429
▁правы	-4430
▁прайд	-4431
▁преде	-4432
▁прием	-4433
▁прими	-4434
▁припо	-4435
▁пробу	-4436
▁прошу	-4437
▁психо	-4438
▁пукну	-4439
▁пулиа	-4440
▁пусть	-4441
▁пятый	-4442
▁ранен	-4443
▁регла	-4444
▁редко	-4445
▁ремни	-4446
▁ремня	-4447
▁решил	-4448
▁решим	-4449
▁риско	-4450
▁рожая	-4451
▁рожде	-4452
▁рокет	-4453
▁руках	-4454
▁рукой	-4455
▁рядом	-4456
▁самим	-4457
▁самом	-4458
▁свели	-4459
▁свида	-4460
▁сдобр	-4461
▁секси	-4462
▁семью	-4463
▁сентя	-4464
▁синяк	-4465
▁скулы	-4466
▁слове	-4467
▁слово	-4468
▁смеши	-4469
▁смогу	-4470
▁сниму	-4471
▁снова	-4472
▁сожал	-4473
▁сосал	-4474
▁сотни	-4475
▁сошли	-4476
▁спорт	-4477
▁сража	-4478
▁стали	-4479
▁сталь	-4480
▁стези	-4481
▁страх	-4482
▁судья	-4483
▁сумку	-4484
▁сфере	-4485
▁сыном	-4486
▁такие	-4487
▁таким	-4488
▁такое	-4489
▁такую	-4490
▁танцы	-4491
▁твори	-4492
▁твоём	-4493
▁текут	-4494
▁темпл	-4495
▁терпя	-4496
▁техни	-4497
▁тимор	-4498
▁тогда	-4499
▁траве	-4500
▁троих	-4501
▁труда	-4502
▁тувок	-4503
▁тунды	-4504
▁убить	-4505
▁убьют	-4506
▁увижу	-4507
▁уедут	-4508
▁ужели	-4509
▁уколы	-4510
▁умным	-4511
▁умрем	-4512
▁уроки	-4513
▁усама	-4514
▁ухожу	-4515
▁учиню	-4516
▁ферме	-4517
▁хвост	-4518
▁хиран	-4519
▁холме	-4520
▁хотим	-4521
▁храма	-4522
▁хрена	-4523
▁хулио	-4524
▁целей	-4525
▁целью	-4526
▁ценах	-4527
▁центр	-4528
▁части	-4529
▁честь	-4530
▁четко	-4531
▁члены	-4532
▁чужим	-4533
▁чёрта	-4534
▁шавки	-4535
▁шагах	-4536
▁шейла	-4537
▁шесть	-4538
▁школе	-4539
▁шляхе	-4540
▁экзем	-4541
▁эмбер	-4542
▁этаже	-4543
▁этими	-4544
▁этому	-4545
▁ярдов	-4546
▁ясном	-4547
▁ադրբե	-4548
▁համան	-4549
▁հանդի	-4550
/2001/2	-4551
=12879.	-4552
=15160.	-4553
andionn	-4554
comment	-4555
бегутся	-4556
бираешь	-4557
божники	-4558
большую	-4559
ботятся	-4560
вативен	-4561
вающего	-4562
вестный	-4563
вещание	-4564
видации	-4565
видимым	-4566
вленную	-4567
вленных	-4568
влетвор	-4569
вливает	-4570
водимое	-4571
гаеться	-4572
гласить	-4573
говорил	-4574
говорит	-4575
действо	-4576
дельник	-4577
держала	-4578
довался	-4579
докумен	-4580
доление	-4581
дствуют	-4582
дывайся	-4583
жениями	-4584
женство	-4585
замечен	-4586
земцами	-4587
значить	-4588
зревать	-4589
казанию	-4590
кальные	-4591
канские	-4592
кариков	-4593
клянусь	-4594
койтесь	-4595
ктивной	-4596
лебания	-4597
легация	-4598
логовые	-4599
ломлены	-4600
льствен	-4601
льтатов	-4602
льтации	-4603
льтаций	-4604
лярного	-4605
ментами	-4606
мотрите	-4607
неваюсь	-4608
неужели	-4609
новений	-4610
новится	-4611
новятся	-4612
нсирова	-4613
оригина	-4614
паломни	-4615
пахнула	-4616
печного	-4617
пимости	-4618
писание	-4619
питания	-4620
полнена	-4621
получии	-4622
потребл	-4623
публики	-4624
пускать	-4625
пятству	-4626
решение	-4627
риантов	-4628
ритории	-4629
ройства	-4630
рточкой	-4631
рубился	-4632
рчливый	-4633
свидете	-4634
сделали	-4635
селимся	-4636
следить	-4637
снитесь	-4638
статься	-4639
ственно	-4640
ствуешь	-4641
ствуйте	-4642
стности	-4643
стовери	-4644
стоящий	-4645
страции	-4646
стрелят	-4647
ступают	-4648
тельной	-4649
тересов	-4650
ттердам	-4651
умеется	-4652
ходятся	-4653
ходящее	-4654
циализи	-4655
цузских	-4656
черинка	-4657
шиваете	-4658
шинству	-4659
шмарные	-4660
щаешься	-4661
ысканно	-4662
экономи	-4663
ющимися	-4664
ախագահն	-4665
▁21:00"	-4666
▁55/233	-4667
▁55/51.	-4668
▁57/300	-4669
▁action	-4670
▁column	-4671
▁inmenu	-4672
▁moneta	-4673
▁montel	-4674
▁posted	-4675
▁skumji	-4676
▁things	-4677
▁vsasha	-4678
▁абудже	-4679
▁аварий	-4680
▁авраам	-4681
▁агента	-4682
▁адресу	-4683
▁адской	-4684
▁алекса	-4685
▁аллаху	-4686
▁анализ	-4687
▁ананас	-4688
▁ангела	-4689
▁ангелы	-4690
▁апреля	-4691
▁ариано	-4692
▁африке	-4693
▁баксов	-4694
▁барзах	-4695
▁бегать	-4696
▁бедоку	-4697
▁бежала	-4698
▁бетоне	-4699
▁билета	-4700
▁близки	-4701
▁блюдет	-4702
▁боевых	-4703
▁борьбы	-4704
▁брайан	-4705
▁брезго	-4706
▁бримли	-4707
▁бросил	-4708
▁будете	-4709
▁будучи	-4710
▁будьте	-4711
▁буквой	-4712
▁бывший	-4713
▁быстро	-4714
▁вверга	-4715
▁вверяю	-4716
▁верным	-4717
▁веруют	-4718
▁верхам	-4719
▁весело	-4720
▁взлета	-4721
▁влечет	-4722
▁внесен	-4723
▁возьми	-4724
▁воинов	-4725
▁вокруг	-4726
▁волосы	-4727
▁ворота	-4728
▁вперед	-4729
▁впредь	-4730
▁вскоре	-4731
▁выпало	-4732
▁выпить	-4733
▁выхода	-4734
▁выходя	-4735
▁гараже	-4736
▁гарнер	-4737
▁гитары	-4738
▁глухой	-4739
▁голаны	-4740
▁голове	-4741
▁голоса	-4742
▁готова	-4743
▁грубую	-4744
▁группе	-4745
▁группы	-4746
▁дадите	-4747
▁делару	-4748
▁делают	-4749
▁деньги	-4750
▁дерево	-4751
▁дереву	-4752
▁держал	-4753
▁держит	-4754
▁дерьмо	-4755
▁детали	-4756
▁деяние	-4757
▁деяния	-4758
▁джибта	-4759
▁диарея	-4760
▁диспро	-4761
▁доброй	-4762
▁дождей	-4763
▁дозвол	-4764
▁доказа	-4765
▁долгой	-4766
▁доноры	-4767
▁дополн	-4768
▁дороги	-4769
▁дочери	-4770
▁другим	-4771
▁другое	-4772
▁друзей	-4773
▁думает	-4774
▁думала	-4775
▁думали	-4776
▁думать	-4777
▁египет	-4778
▁живете	-4779
▁жизней	-4780
▁жители	-4781
▁забери	-4782
▁забыло	-4783
▁задумы	-4784
▁зараза	-4785
▁зверем	-4786
▁звучал	-4787
▁здание	-4788
▁знаете	-4789
▁значит	-4790
▁зрение	-4791
▁идолов	-4792
▁избави	-4793
▁изнемо	-4794
▁изюмск	-4795
▁иногда	-4796
▁искали	-4797
▁искать	-4798
▁ислама	-4799
▁итогам	-4800
▁каждую	-4801
▁каждый	-4802
▁какими	-4803
▁каковы	-4804
▁камере	-4805
▁кладёт	-4806
▁клинок	-4807
▁кнопку	-4808
▁консер	-4809
▁короля	-4810
▁кровью	-4811
▁крутой	-4812
▁кстати	-4813
▁курица	-4814
▁лабора	-4815
▁лгущих	-4816
▁летняя	-4817
▁ливана	-4818
▁личным	-4819
▁лучшее	-4820
▁лучшие	-4821
▁любишь	-4822
▁манаус	-4823
▁манхет	-4824
▁марций	-4825
▁матрос	-4826
▁машины	-4827
▁медиум	-4828
▁местах	-4829
▁методы	-4830
▁механи	-4831
▁милует	-4832
▁минуту	-4833
▁миссии	-4834
▁миссий	-4835
▁миссис	-4836
▁мнение	-4837
▁многие	-4838
▁многое	-4839
▁молоды	-4840
▁молока	-4841
▁мотиви	-4842
▁мэйсон	-4843
▁мягкое	-4844
▁набира	-4845
▁надеть	-4846
▁назвал	-4847
▁найдем	-4848
▁народа	-4849
▁настав	-4850
▁насчет	-4851
▁находя	-4852
▁начале	-4853
▁небоск	-4854
▁недели	-4855
▁недель	-4856
▁ненави	-4857
▁нерегу	-4858
▁несёте	-4859
▁нижняя	-4860
▁николь	-4861
▁никому	-4862
▁никуда	-4863
▁новыми	-4864
▁носить	-4865
▁нюансы	-4866
▁обрели	-4867
▁обряды	-4868
▁община	-4869
▁объеме	-4870
▁обычно	-4871
▁обыщем	-4872
▁однако	-4873
▁одними	-4874
▁оказал	-4875
▁оконча	-4876
▁органу	-4877
▁органы	-4878
▁оружие	-4879
▁оружии	-4880
▁оружия	-4881
▁освобо	-4882
▁ослуша	-4883
▁основе	-4884
▁особой	-4885
▁особых	-4886
▁острая	-4887
▁ответы	-4888
▁ответь	-4889
▁откуда	-4890
▁оттого	-4891
▁оценке	-4892
▁очнись	-4893
▁пайпер	-4894
▁парень	-4895
▁парнем	-4896
▁партия	-4897
▁патрик	-4898
▁пацаны	-4899
▁первой	-4900
▁первую	-4901
▁платим	-4902
▁плохие	-4903
▁победу	-4904
▁побери	-4905
▁побрал	-4906
▁поведу	-4907
▁повино	-4908
▁поводу	-4909
▁подают	-4910
▁подчер	-4911
▁поесть	-4912
▁пожени	-4913
▁поймаю	-4914
▁покажу	-4915
▁показу	-4916
▁полити	-4917
▁полная	-4918
▁полной	-4919
▁поняла	-4920
▁посплю	-4921
▁постеп	-4922
▁постра	-4923
▁потери	-4924
▁потока	-4925
▁похоже	-4926
▁правда	-4927
▁правды	-4928
▁правил	-4929
▁превос	-4930
▁предус	-4931
▁прежде	-4932
▁присте	-4933
▁присут	-4934
▁пришла	-4935
▁пришли	-4936
▁приюте	-4937
▁продви	-4938
▁просил	-4939
▁просит	-4940
▁против	-4941
▁прочих	-4942
▁прошли	-4943
▁прямым	-4944
▁прячут	-4945
▁пьющим	-4946
▁районе	-4947
▁раньше	-4948
▁растер	-4949
▁ребята	-4950
▁резюме	-4951
▁реинте	-4952
▁ртутью	-4953
▁сажать	-4954
▁сандор	-4955
▁свинья	-4956
▁своему	-4957
▁связей	-4958
▁сделаю	-4959
▁семьям	-4960
▁сердце	-4961
▁сериях	-4962
▁сестры	-4963
▁сигнал	-4964
▁сидите	-4965
▁слабак	-4966
▁слабый	-4967
▁словам	-4968
▁служба	-4969
▁служил	-4970
▁служит	-4971
▁случае	-4972
▁сможет	-4973
▁собесе	-4974
▁соблюд	-4975
▁солнца	-4976
▁сомали	-4977
▁сообра	-4978
▁специи	-4979
▁списка	-4980
▁список	-4981
▁спрята	-4982
▁срокам	-4983
▁стадии	-4984
▁станет	-4985
▁стекле	-4986
▁стоило	-4987
▁стране	-4988
▁страха	-4989
▁стреми	-4990
▁судный	-4991
▁сумеем	-4992
▁тагута	-4993
▁такому	-4994
▁тварей	-4995
▁тереза	-4996
▁тошнит	-4997
▁тролль	-4998
▁тэтума	-4999
▁тяжело	-5000
▁убийцы	-5001
▁уверен	-5002
▁углубл	-5003
▁удержи	-5004
▁удоста	-5005
▁уезжаю	-5006
▁ужасно	-5007
▁ужасны	-5008
▁уйдете	-5009
▁укроет	-5010
▁улицах	-5011
▁улыбка	-5012
▁умрешь	-5013
▁уничто	-5014
▁упорно	-5015
▁уродов	-5016
▁урожаи	-5017
▁усилие	-5018
▁усколь	-5019
▁устава	-5020
▁устана	-5021
▁устный	-5022
▁устным	-5023
▁учетом	-5024
▁фараон	-5025
▁федера	-5026
▁формам	-5027
▁фрукты	-5028
▁ходить	-5029
▁хозяин	-5030
▁целесо	-5031
▁центра	-5032
▁чарльз	-5033
▁частей	-5034
▁четыре	-5035
▁чистом	-5036
▁членов	-5037
▁шпинат	-5038
▁шутишь	-5039
▁щедрое	-5040
▁эйприл	-5041
▁эффери	-5042
▁яблоки	-5043
/61/122/	-5044
erything	-5045
богатели	-5046
вандовое	-5047
ведников	-5048
вергайте	-5049
видетель	-5050
вленного	-5051
вляешься	-5052
воистину	-5053
втракать	-5054
вываться	-5055
газинчик	-5056
гнования	-5057
годичный	-5058
держанию	-5059
дровяной	-5060
ждениями	-5061
зываться	-5062
зываются	-5063
износила	-5064
истерила	-5065
конненов	-5066
кономики	-5067
лагаемая	-5068
лагаемом	-5069
ливается	-5070
логичные	-5071
луатации	-5072
луживают	-5073
меняются	-5074
ногласия	-5075
образным	-5076
отложных	-5077
поверить	-5078
посмотри	-5079
прежнему	-5080
прекрати	-5081
приглаша	-5082
приятиям	-5083
пьютеров	-5084
разилось	-5085
решиться	-5086
риптизер	-5087
рованных	-5088
рясающие	-5089
седателя	-5090
совестно	-5091
сочайший	-5092
спорядок	-5093
ставляет	-5094
ставляла	-5095
ставляли	-5096
ставлять	-5097
ственные	-5098
ственным	-5099
ствовала	-5100
ствующую	-5101
странных	-5102
ступника	-5103
суальная	-5104
тавливаю	-5105
тельного	-5106
тельство	-5107
тировать	-5108
убийство	-5109
уменьшат	-5110
участник	-5111
ционными	-5112
читанное	-5113
▁(1991),	-5114
▁anthrax	-5115
▁between	-5116
▁entries	-5117
▁laurent	-5118
▁origami	-5119
▁subject	-5120
▁unknown	-5121
▁usually	-5122
▁аллахом	-5123
▁аппарат	-5124
▁армения	-5125
▁баланса	-5126
▁бейрута	-5127
▁бесчисл	-5128
▁боишься	-5129
▁болезни	-5130
▁болхани	-5131
▁большая	-5132
▁большой	-5133
▁бригаду	-5134
▁бросали	-5135
▁будущем	-5136
▁буриана	-5137
▁бывшего	-5138
▁бюджете	-5139
▁ведения	-5140
▁вежливы	-5141
▁великое	-5142
▁великой	-5143
▁веревка	-5144
▁вернусь	-5145
▁весёлая	-5146
▁вечером	-5147
▁вздумай	-5148
▁видении	-5149
▁виноват	-5150
▁винсент	-5151
▁военная	-5152
▁воздано	-5153
▁воздухе	-5154
▁возраст	-5155
▁войдите	-5156
▁вопросы	-5157
▁восходе	-5158
▁вписать	-5159
▁врагами	-5160
▁времени	-5161
▁всецело	-5162
▁вспышки	-5163
▁встрече	-5164
▁выздоро	-5165
▁выйдешь	-5166
▁вынести	-5167
▁высшего	-5168
▁выходят	-5169
▁габриэл	-5170
▁главной	-5171
▁главные	-5172
▁головой	-5173
▁голосов	-5174
▁горячий	-5175
▁дворняг	-5176
▁девочек	-5177
▁девочка	-5178
▁делаете	-5179
▁деревья	-5180
▁держала	-5181
▁держите	-5182
▁детский	-5183
▁доклада	-5184
▁дональд	-5185
▁дорогах	-5186
▁дорогой	-5187
▁дрались	-5188
▁другого	-5189
▁жаннетт	-5190
▁женщине	-5191
▁женщины	-5192
▁жертвам	-5193
▁забавно	-5194
▁забудут	-5195
▁зависит	-5196
▁задницу	-5197
▁задумал	-5198
▁закупка	-5199
▁залезай	-5200
▁записки	-5201
▁запонки	-5202
▁запроса	-5203
▁зафикси	-5204
▁захотим	-5205
▁зеркала	-5206
▁знакомо	-5207
▁идеален	-5208
▁икмоонн	-5209
▁имеются	-5210
▁имеющие	-5211
▁инсцени	-5212
▁исследо	-5213
▁истинно	-5214
▁истории	-5215
▁исходят	-5216
▁каждого	-5217
▁кажется	-5218
▁камушек	-5219
▁капитан	-5220
▁кермита	-5221
▁климати	-5222
▁когтями	-5223
▁комиксы	-5224
▁комнату	-5225
▁коннорс	-5226
▁кормить	-5227
▁которое	-5228
▁красиво	-5229
▁красивы	-5230
▁краткий	-5231
▁кусочек	-5232
▁людвигу	-5233
▁мандата	-5234
▁манящий	-5235
▁мебелью	-5236
▁медиков	-5237
▁местный	-5238
▁металла	-5239
▁митчелл	-5240
▁мокрого	-5241
▁молодой	-5242
▁мостами	-5243
▁мудаком	-5244
▁мужчину	-5245
▁мучения	-5246
▁наборов	-5247
▁наводку	-5248
▁надоело	-5249
▁нажмите	-5250
▁наконец	-5251
▁нанесут	-5252
▁нарушал	-5253
▁насилию	-5254
▁насилия	-5255
▁начинаю	-5256
▁начиная	-5257
▁небесах	-5258
▁неважно	-5259
▁неспеша	-5260
▁неуступ	-5261
▁никакое	-5262
▁нищетой	-5263
▁новость	-5264
▁области	-5265
▁обойдут	-5266
▁оборудо	-5267
▁обратно	-5268
▁обрести	-5269
▁обычной	-5270
▁обычный	-5271
▁оголяют	-5272
▁однажды	-5273
▁ожидали	-5274
▁октября	-5275
▁орехами	-5276
▁оставив	-5277
▁остатки	-5278
▁отврати	-5279
▁отделен	-5280
▁открыть	-5281
▁отплыли	-5282
▁отчетов	-5283
▁очарова	-5284
▁очередь	-5285
▁папочка	-5286
▁паренёк	-5287
▁пекарня	-5288
▁передан	-5289
▁перечня	-5290
▁печалей	-5291
▁писание	-5292
▁писания	-5293
▁планета	-5294
▁платить	-5295
▁поведал	-5296
▁повстан	-5297
▁подарка	-5298
▁подними	-5299
▁подойди	-5300
▁подруга	-5301
▁пожелал	-5302
▁позвоню	-5303
▁позиция	-5304
▁поймете	-5305
▁поймите	-5306
▁полагаю	-5307
▁полицей	-5308
▁полного	-5309
▁положил	-5310
▁помнить	-5311
▁понимаю	-5312
▁попадет	-5313
▁попроси	-5314
▁порожда	-5315
▁правила	-5316
▁правило	-5317
▁правилу	-5318
▁примите	-5319
▁принять	-5320
▁пришить	-5321
▁проблем	-5322
▁проверь	-5323
▁продать	-5324
▁промышл	-5325
▁пропало	-5326
▁прорыва	-5327
▁просьба	-5328
▁прошлом	-5329
▁прощает	-5330
▁пытался	-5331
▁пытаюсь	-5332
▁работаю	-5333
▁рабочее	-5334
▁рабочей	-5335
▁рабочую	-5336
▁разделе	-5337
▁разницы	-5338
▁расовой	-5339
▁распоря	-5340
▁расходы	-5341
▁реабили	-5342
▁реакция	-5343
▁ребенка	-5344
▁ребенок	-5345
▁ребёнка	-5346
▁региона	-5347
▁религия	-5348
▁репроду	-5349
▁решайте	-5350
▁решению	-5351
▁рисовал	-5352
▁рисунки	-5353
▁роскоши	-5354
▁рудники	-5355
▁руковод	-5356
▁садовой	-5357
▁саквояж	-5358
▁саммита	-5359
▁сбежала	-5360
▁свалить	-5361
▁свинины	-5362
▁свяжусь	-5363
▁святого	-5364
▁сгниешь	-5365
▁сделала	-5366
▁седьмая	-5367
▁сеньора	-5368
▁сеточку	-5369
▁скучали	-5370
▁слабеет	-5371
▁сладкий	-5372
▁следить	-5373
▁следует	-5374
▁следуют	-5375
▁словами	-5376
▁сложнее	-5377
▁сложные	-5378
▁слышала	-5379
▁слышать	-5380
▁слышите	-5381
▁слышишь	-5382
▁смертей	-5383
▁смешное	-5384
▁снимают	-5385
▁событий	-5386
▁содержа	-5387
▁сожалею	-5388
▁создает	-5389
▁солдаты	-5390
▁сопроти	-5391
▁соревно	-5392
▁состава	-5393
▁состави	-5394
▁статьей	-5395
▁степени	-5396
▁стороны	-5397
▁стоящих	-5398
▁странах	-5399
▁странно	-5400
▁строить	-5401
▁ступать	-5402
▁счастье	-5403
▁считали	-5404
▁считают	-5405
▁таковые	-5406
▁текстах	-5407
▁текстов	-5408
▁текущей	-5409
▁текущих	-5410
▁товарам	-5411
▁толчком	-5412
▁тормоза	-5413
▁трахнул	-5414
▁тревога	-5415
▁убивают	-5416
▁убойный	-5417
▁уверена	-5418
▁увидишь	-5419
▁ужасная	-5420
▁ужасный	-5421
▁узнаете	-5422
▁узнаешь	-5423
▁уколоть	-5424
▁умирает	-5425
▁умирать	-5426
▁упокоит	-5427
▁уровень	-5428
▁условия	-5429
▁услышал	-5430
▁устроит	-5431
▁уступай	-5432
▁утопила	-5433
▁уходить	-5434
▁участие	-5435
▁участок	-5436
▁фараона	-5437
▁фронтах	-5438
▁халонен	-5439
▁хватать	-5440
▁хоббиты	-5441
▁холодно	-5442
▁хорошим	-5443
▁чендлер	-5444
▁чешется	-5445
▁чистоту	-5446
▁чувства	-5447
▁юстиция	-5448
▁ќеплохо	-5449
▁նախարար	-5450
английски	-5451
восточной	-5452
всевышний	-5453
довольные	-5454
жденность	-5455
кладывать	-5456
ключенные	-5457
матривает	-5458
олноватьс	-5459
оритетной	-5460
подростка	-5461
полняться	-5462
распредел	-5463
ребристые	-5464
ржествует	-5465
рованного	-5466
рованному	-5467
свидетели	-5468
священное	-5469
скивающий	-5470
следовали	-5471
спортному	-5472
ственской	-5473
ствования	-5474
стинского	-5475
ступитесь	-5476
твращения	-5477
▁1980/114	-5478
▁location	-5479
▁previous	-5480
▁азартный	-5481
▁базового	-5482
▁белесыми	-5483
▁бойфренд	-5484
▁бросаясь	-5485
▁бруклина	-5486
▁будущего	-5487
▁валяться	-5488
▁введения	-5489
▁вернется	-5490
▁верующие	-5491
▁взломали	-5492
▁виртуоза	-5493
▁влюблена	-5494
▁вознагра	-5495
▁возьмете	-5496
▁вопросов	-5497
▁вставать	-5498
▁выберите	-5499
▁выдавали	-5500
▁выезжаем	-5501
▁вызывать	-5502
▁выносить	-5503
▁выполнят	-5504
▁выражено	-5505
▁выразили	-5506
▁вырезано	-5507
▁вытащить	-5508
▁выходите	-5509
▁выходишь	-5510
▁глупости	-5511
▁говорила	-5512
▁горошины	-5513
▁господин	-5514
▁грошовый	-5515
▁девушкам	-5516
▁детского	-5517
▁директор	-5518
▁довольны	-5519
▁договори	-5520
▁докладов	-5521
▁достигли	-5522
▁драконом	-5523
▁древнего	-5524
▁дурачить	-5525
▁жадность	-5526
▁жасмином	-5527
▁желающие	-5528
▁животное	-5529
▁животных	-5530
▁заглянул	-5531
▁задавить	-5532
▁задумали	-5533
▁закрытые	-5534
▁залезьте	-5535
▁занимает	-5536
▁западный	-5537
▁запретов	-5538
▁засветит	-5539
▁заставим	-5540
▁застаива	-5541
▁заточили	-5542
▁заявляем	-5543
▁зверюшку	-5544
▁значение	-5545
▁значения	-5546
▁извините	-5547
▁изменяет	-5548
▁изучения	-5549
▁индивиду	-5550
▁интервью	-5551
▁искушали	-5552
▁истинную	-5553
▁исчезнет	-5554
▁казаться	-5555
▁канберре	-5556
▁качестве	-5557
▁квартира	-5558
▁киберпре	-5559
▁колосьев	-5560
▁конечном	-5561
▁контроль	-5562
▁кораблях	-5563
▁кормилиц	-5564
▁котлетки	-5565
▁которыми	-5566
▁ларингит	-5567
▁легально	-5568
▁лицемеры	-5569
▁мальчика	-5570
▁мелькает	-5571
▁менеджер	-5572
▁миллиона	-5573
▁миротвор	-5574
▁мусорные	-5575
▁мухаммад	-5576
▁навредил	-5577
▁называть	-5578
▁наименее	-5579
▁написано	-5580
▁например	-5581
▁настигли	-5582
▁небрежет	-5583
▁неверным	-5584
▁недозвол	-5585
▁непосред	-5586
▁неправда	-5587
▁нравится	-5588
▁обитаема	-5589
▁областях	-5590
▁обожжена	-5591
▁обратное	-5592
▁обретают	-5593
▁обсудили	-5594
▁обучился	-5595
▁общаться	-5596
▁объяснил	-5597
▁объясним	-5598
▁огромное	-5599
▁одержала	-5600
▁одержали	-5601
▁ознакоми	-5602
▁оказания	-5603
▁операций	-5604
▁основаны	-5605
▁основном	-5606
▁основные	-5607
▁основных	-5608
▁особенно	-5609
▁оставила	-5610
▁оставили	-5611
▁остаемся	-5612
▁остается	-5613
▁осталась	-5614
▁остались	-5615
▁остаться	-5616
▁остаётся	-5617
▁осуждает	-5618
▁ответьте	-5619
▁открывай	-5620
▁открытые	-5621
▁откусила	-5622
▁отличная	-5623
▁отличным	-5624
▁отменено	-5625
▁отместку	-5626
▁отпечаты	-5627
▁отражены	-5628
▁охранник	-5629
▁охраняют	-5630
▁ощущение	-5631
▁персонал	-5632
▁печально	-5633
▁печатной	-5634
▁питаться	-5635
▁пиццерии	-5636
▁плюшевый	-5637
▁поверить	-5638
▁поводком	-5639
▁погодные	-5640
▁подавить	-5641
▁подвести	-5642
▁поджигай	-5643
▁подписан	-5644
▁подумать	-5645
▁поездках	-5646
▁пожелают	-5647
▁позднего	-5648
▁поистине	-5649
▁пойдемте	-5650
▁покидает	-5651
▁получить	-5652
▁помогает	-5653
▁помогают	-5654
▁попыткой	-5655
▁посмотри	-5656
▁посылали	-5657
▁потеряли	-5658
▁похожими	-5659
▁починили	-5660
▁правящая	-5661
▁предвари	-5662
▁придумаю	-5663
▁признана	-5664
▁принесли	-5665
▁принимал	-5666
▁принимая	-5667
▁приносит	-5668
▁проблему	-5669
▁проверке	-5670
▁пройтись	-5671
▁професси	-5672
▁проходит	-5673
▁проходят	-5674
▁прошлого	-5675
▁прощение	-5676
▁прощения	-5677
▁проясним	-5678
▁прячемся	-5679
▁пушистый	-5680
▁пытались	-5681
▁развитые	-5682
▁разговор	-5683
▁разумное	-5684
▁рассвета	-5685
▁расскажи	-5686
▁режиссер	-5687
▁ресурсов	-5688
▁родители	-5689
▁родствен	-5690
▁самостоя	-5691
▁сведению	-5692
▁свиданья	-5693
▁сентября	-5694
▁ситуации	-5695
▁ситуация	-5696
▁скорости	-5697
▁скорость	-5698
▁слабость	-5699
▁служащий	-5700
▁слушаете	-5701
▁сметаной	-5702
▁собратья	-5703
▁совершат	-5704
▁согласия	-5705
▁сознавая	-5706
▁сознание	-5707
▁сомнений	-5708
▁сообщает	-5709
▁спасенья	-5710
▁спокойно	-5711
▁спустить	-5712
▁сравнимо	-5713
▁средство	-5714
▁средству	-5715
▁ссылаясь	-5716
▁странами	-5717
▁странная	-5718
▁студента	-5719
▁сформули	-5720
▁считаешь	-5721
▁считайте	-5722
▁сырьевым	-5723
▁творится	-5724
▁творящих	-5725
▁телефоне	-5726
▁торговал	-5727
▁тройного	-5728
▁трудимся	-5729
▁уговорил	-5730
▁уилфорда	-5731
▁услышать	-5732
▁факторов	-5733
▁характер	-5734
▁хотелось	-5735
▁человеку	-5736
▁чемодане	-5737
▁ченнинга	-5738
▁чечевицы	-5739
▁шевелись	-5740
▁школьная	-5741
▁школьным	-5742
/2006/507)	-5743
ведливость	-5744
визуальной	-5745
воточащему	-5746
логической	-5747
льственных	-5748
настоящему	-5749
нсирование	-5750
поклонение	-5751
рабатывать	-5752
рассказать	-5753
сопредседа	-5754
стороннему	-5755
▁2002-2003	-5756
▁available	-5757
▁encounter	-5758
▁gradients	-5759
▁september	-5760
▁александр	-5761
▁барселона	-5762
▁бездомных	-5763
▁благодаря	-5764
▁ближайший	-5765
▁вариантов	-5766
▁вернулась	-5767
▁вечеринка	-5768
▁взгляните	-5769
▁взорвался	-5770
▁воздастся	-5771
▁возможное	-5772
▁возможных	-5773
▁вопросами	-5774
▁ворчливый	-5775
▁восточной	-5776
▁временных	-5777
▁всемирной	-5778
▁встретить	-5779
▁встречала	-5780
▁выполнена	-5781
▁выпускать	-5782
▁вырубился	-5783
▁выцветают	-5784
▁гражданам	-5785
▁дарующего	-5786
▁двигаться	-5787
▁делегация	-5788
▁держитесь	-5789
▁дискуссии	-5790
▁добрались	-5791
▁добраться	-5792
▁добывания	-5793
▁жестокому	-5794
▁забраться	-5795
▁заверение	-5796
▁завершить	-5797
▁завтракал	-5798
▁задокумен	-5799
▁задумался	-5800
▁займешься	-5801
▁заплатили	-5802
▁запретили	-5803
▁запретные	-5804
▁запрыгнул	-5805
▁заседании	-5806
▁засеивать	-5807
▁застрелил	-5808
▁застрелят	-5809
▁известный	-5810
▁изысканно	-5811
▁интересов	-5812
▁интернете	-5813
▁искушение	-5814
▁карточкой	-5815
▁квитанции	-5816
▁китайский	-5817
▁колебания	-5818
▁коллегами	-5819
▁коммуника	-5820
▁конвенция	-5821
▁контракту	-5822
▁кормилицы	-5823
▁кошмарные	-5824
▁лейтенант	-5825
▁локальные	-5826
▁маленькое	-5827
▁маленькую	-5828
▁материалы	-5829
▁множество	-5830
▁мужчинами	-5831
▁наблюдала	-5832
▁наверняка	-5833
▁наихудшем	-5834
▁наказанию	-5835
▁налоговые	-5836
▁наполнить	-5837
▁насколько	-5838
▁настоящий	-5839
▁наступить	-5840
▁находятся	-5841
▁невидимым	-5842
▁незамечен	-5843
▁некоторых	-5844
▁неприятно	-5845
▁несчастье	-5846
▁несчастья	-5847
▁ниспослан	-5848
▁обвинения	-5849
▁облажался	-5850
▁общаешься	-5851
▁объяснить	-5852
▁овулирует	-5853
▁одинаковы	-5854
▁окончания	-5855
▁оппозиции	-5856
▁останется	-5857
▁осторожны	-5858
▁отверстие	-5859
▁отношении	-5860
▁отношению	-5861
▁отплатить	-5862
▁отравлять	-5863
▁отследили	-5864
▁очередную	-5865
▁очкариков	-5866
▁перезвоню	-5867
▁плантации	-5868
▁поведение	-5869
▁поддержке	-5870
▁подстрека	-5871
▁позволить	-5872
▁показывал	-5873
▁полностью	-5874
▁положении	-5875
▁положений	-5876
▁помещение	-5877
▁помещении	-5878
▁поминании	-5879
▁понимание	-5880
▁пообедать	-5881
▁поощрение	-5882
▁пополнить	-5883
▁посвящена	-5884
▁последнее	-5885
▁последние	-5886
▁последняя	-5887
▁посмотрел	-5888
▁постоянно	-5889
▁поступают	-5890
▁праведные	-5891
▁практикой	-5892
▁превратил	-5893
▁превышает	-5894
▁предлагаю	-5895
▁прекрасна	-5896
▁приварены	-5897
▁приветики	-5898
▁привычную	-5899
▁пригодном	-5900
▁призраков	-5901
▁примавера	-5902
▁принимает	-5903
▁присмотра	-5904
▁пристрели	-5905
▁пробежала	-5906
▁проводить	-5907
▁продление	-5908
▁продлении	-5909
▁продукции	-5910
▁проектами	-5911
▁пропустил	-5912
▁проступок	-5913
▁профессор	-5914
▁процедуры	-5915
▁процессом	-5916
▁разместил	-5917
▁раскраски	-5918
▁рассматри	-5919
▁революции	-5920
▁редкостью	-5921
▁роттердам	-5922
▁самоотвер	-5923
▁свершение	-5924
▁связанных	-5925
▁священный	-5926
▁сделанных	-5927
▁серьезных	-5928
▁сестренка	-5929
▁сингапура	-5930
▁сирийские	-5931
▁сказочной	-5932
▁следующий	-5933
▁следующих	-5934
▁собирался	-5935
▁собираюсь	-5936
▁совещание	-5937
▁сожалению	-5938
▁сообщение	-5939
▁сообщений	-5940
▁состоянии	-5941
▁сотворили	-5942
▁социально	-5943
▁спасаются	-5944
▁спокойной	-5945
▁старалась	-5946
▁стетоскоп	-5947
▁трагичной	-5948
▁трудности	-5949
▁уберечься	-5950
▁уверовать	-5951
▁уволенных	-5952
▁уголовник	-5953
▁уготованы	-5954
▁указывает	-5955
▁умудрился	-5956
▁установил	-5957
▁характера	-5958
▁христиане	-5959
▁частности	-5960
▁четвёртом	-5961
▁шотландцы	-5962
▁экономики	-5963
▁экспертов	-5964
▁նախարարին	-5965
/2001/287),	-5966
влетворение	-5967
действовали	-5968
оригинально	-5969
подвергайте	-5970
потребление	-5971
продолжение	-5972
пятствующих	-5973
степриимным	-5974
стовериться	-5975
участниками	-5976
фактические	-5977
ախագահներին	-5978
▁(00:03:33)	-5979
▁appreciate	-5980
▁everything	-5981
▁romandionn	-5982
▁бедокурить	-5983
▁беспорядок	-5984
▁благодарна	-5985
▁блаженство	-5986
▁брезговать	-5987
▁ввергаются	-5988
▁волнуешься	-5989
▁вооружения	-5990
▁восточного	-5991
▁встретимся	-5992
▁высочайший	-5993
▁голосовали	-5994
▁господнего	-5995
▁двенадцать	-5996
▁догадаться	-5997
▁дозволения	-5998
▁дополнения	-5999
▁достижения	-6000
▁жестокость	-6001
▁забастовка	-6002
▁заколдован	-6003
▁избавилась	-6004
▁извинилась	-6005
▁изменилась	-6006
▁изменишься	-6007
▁изменяется	-6008
▁икроножной	-6009
▁иноземцами	-6010
▁инструмент	-6011
▁интернетом	-6012
▁информации	-6013
▁информацию	-6014
▁контрактам	-6015
▁лавандовое	-6016
▁ландшафтах	-6017
▁ликвидации	-6018
▁магазинчик	-6019
▁манхеттена	-6020
▁набираемым	-6021
▁направлены	-6022
▁насиловать	-6023
▁наставляет	-6024
▁начинаются	-6025
▁небоскребы	-6026
▁неверующих	-6027
▁невозможно	-6028
▁нездоровая	-6029
▁ненавистью	-6030
▁необычного	-6031
▁неотложных	-6032
▁обитателей	-6033
▁обожженной	-6034
▁обозначить	-6035
▁обсуждению	-6036
▁объявление	-6037
▁объявления	-6038
▁оперативно	-6039
▁освободите	-6040
▁ослушаться	-6041
▁особнячков	-6042
▁оставшийся	-6043
▁останетесь	-6044
▁отравление	-6045
▁очищенного	-6046
▁ошеломлены	-6047
▁передавать	-6048
▁письменное	-6049
▁поведением	-6050
▁повинуются	-6051
▁поговорить	-6052
▁подбираешь	-6053
▁подготовки	-6054
▁поднимайся	-6055
▁подписания	-6056
▁пожаловать	-6057
▁поженились	-6058
▁позволяешь	-6059
▁показывает	-6060
▁положением	-6061
▁положениям	-6062
▁получается	-6063
▁полученные	-6064
▁поминанием	-6065
▁понравится	-6066
▁посланнику	-6067
▁послушайте	-6068
▁посмотреть	-6069
▁постепенно	-6070
▁постоянную	-6071
▁пострадали	-6072
▁предложить	-6073
▁предъявить	-6074
▁предыдущих	-6075
▁преодолели	-6076
▁приводимое	-6077
▁пригласить	-6078
▁припоминаю	-6079
▁программам	-6080
▁продолжали	-6081
▁пропитания	-6082
▁проследить	-6083
▁проснитесь	-6084
▁процентами	-6085
▁разбегутся	-6086
▁разумеется	-6087
▁распахнула	-6088
▁расписание	-6089
▁расстаться	-6090
▁реактивный	-6091
▁регламента	-6092
▁республики	-6093
▁рискованно	-6094
▁секундочку	-6095
▁совместимы	-6096
▁совместить	-6097
▁содействие	-6098
▁содействия	-6099
▁сомневаюсь	-6100
▁сопредседа	-6101
▁составляли	-6102
▁сочившейся	-6103
▁специализи	-6104
▁специально	-6105
▁спряталась	-6106
▁сражайтесь	-6107
▁средствами	-6108
▁становится	-6109
▁становятся	-6110
▁стриптизер	-6111
▁существует	-6112
▁телефонный	-6113
▁терпимости	-6114
▁территории	-6115
▁технологии	-6116
▁тусовались	-6117
▁узнаваемой	-6118
▁управления	-6119
▁ускользает	-6120
▁устойчивые	-6121
▁устройства	-6122
▁фотография	-6123
▁фотографов	-6124
▁фотосессии	-6125
▁химическом	-6126
▁чувствуешь	-6127
▁экземпляры	-6128
▁энергетика	-6129
обосновались	-6130
приглашаются	-6131
▁аналогичные	-6132
▁астробиолог	-6133
▁африканские	-6134
▁беспокоится	-6135
▁большинству	-6136
▁влиятельные	-6137
▁внимательно	-6138
▁возвращайся	-6139
▁возвращения	-6140
▁возможность	-6141
▁встречаться	-6142
▁выполняемой	-6143
▁выполняться	-6144
▁выступление	-6145
▁выступлений	-6146
▁генеральный	-6147
▁государство	-6148
▁догадывайся	-6149
▁документами	-6150
▁заблуждение	-6151
▁заблуждения	-6152
▁задумывался	-6153
▁заключенные	-6154
▁засвидетель	-6155
▁заслуживают	-6156
▁изнеможение	-6157
▁иностранных	-6158
▁информацией	-6159
▁использовал	-6160
▁исправление	-6161
▁количеством	-6162
▁компьютеров	-6163
▁летательный	-6164
▁мероприятия	-6165
▁направления	-6166
▁наслаждение	-6167
▁находящихся	-6168
▁неправильно	-6169
▁обеспечение	-6170
▁обеспечения	-6171
▁обновленную	-6172
▁обрадовался	-6173
▁образование	-6174
▁обращаешься	-6175
▁объективной	-6176
▁оперативной	-6177
▁определенно	-6178
▁определённо	-6179
▁опубликовал	-6180
▁организация	-6181
▁отведенного	-6182
▁отчаиваются	-6183
▁офигительно	-6184
▁повеселимся	-6185
▁поддержанию	-6186
▁подозревать	-6187
▁подопечного	-6188
▁подчеркнули	-6189
▁позаботятся	-6190
▁поклоняемся	-6191
▁поклоняются	-6192
▁полицейских	-6193
▁положениями	-6194
▁понедельник	-6195
▁порождающих	-6196
▁посвященное	-6197
▁посланником	-6198
▁последующие	-6199
▁постановила	-6200
▁потрясающие	-6201
▁праведников	-6202
▁превосходна	-6203
▁предельного	-6204
▁предполагаю	-6205
▁представлял	-6206
▁прекращении	-6207
▁преодоление	-6208
▁приготовили	-6209
▁применяются	-6210
▁принадлежал	-6211
▁принадлежит	-6212
▁приразилось	-6213
▁присмотрите	-6214
▁пристегните	-6215
▁присутствие	-6216
▁приуменьшат	-6217
▁продолжения	-6218
▁произносила	-6219
▁проявляется	-6220
▁разбогатели	-6221
▁разногласия	-6222
▁разрешиться	-6223
▁рассмотрели	-6224
▁растерзание	-6225
▁результатов	-6226
▁решительной	-6227
▁руководство	-6228
▁сдобренного	-6229
▁сегодняшней	-6230
▁сексуальная	-6231
▁собираетесь	-6232
▁собираешься	-6233
▁соблюдением	-6234
▁собственные	-6235
▁сотрудников	-6236
▁специальных	-6237
▁спрашиваете	-6238
▁углубленное	-6239
▁указываться	-6240
▁уничтожение	-6241
▁успокойтесь	-6242
▁участвовать	-6243
▁федеральный	-6244
▁французских	-6245
▁харконненов	-6246
▁химического	-6247
▁эффективный	-6248
паломничества	-6249
распределение	-6250
экономических	-6251
▁ассигнования	-6252
▁бдительность	-6253
▁бесчисленное	-6254
▁благодаренья	-6255
▁благополучии	-6256
▁возможностей	-6257
▁господствуют	-6258
▁гуманитарным	-6259
▁гуманитарных	-6260
▁двухгодичный	-6261
▁демонстрации	-6262
▁диспропорции	-6263
▁договориться	-6264
▁единственная	-6265
▁застаивается	-6266
▁зафиксирован	-6267
▁здравствуйте	-6268
▁знаменитость	-6269
▁инструментов	-6270
▁инсценировки	-6271
▁исследование	-6272
▁исчезновений	-6273
▁консультации	-6274
▁консультаций	-6275
▁лабораторных	-6276
▁механическое	-6277
▁министерства	-6278
▁министерство	-6279
▁многобожники	-6280
▁направляется	-6281
▁наставниками	-6282
▁национальной	-6283
▁неуступчивую	-6284
▁оборудования	-6285
▁ограниченной	-6286
▁ограниченный	-6287
▁ознакомиться	-6288
▁осмеливается	-6289
▁основываться	-6290
▁осуществляет	-6291
▁отказываются	-6292
▁переводчикам	-6293
▁переставляла	-6294
▁повиновались	-6295
▁позавтракать	-6296
▁познакомимся	-6297
▁политических	-6298
▁потребностей	-6299
▁потребностью	-6300
▁правительств	-6301
▁предлагаемом	-6302
▁предприятиям	-6303
▁председателя	-6304
▁представляет	-6305
▁преследовали	-6306
▁приоритетной	-6307
▁происходящее	-6308
▁прокладывать	-6309
▁распоряжение	-6310
▁расступитесь	-6311
▁рассчитанное	-6312
▁реабилитации	-6313
▁региональный	-6314
▁реинтеграции	-6315
▁рекомендации	-6316
▁рекомендацию	-6317
▁самоубийство	-6318
▁секретариата	-6319
▁собеседникам	-6320
▁содержащиеся	-6321
▁соревнования	-6322
▁составителям	-6323
▁состоявшейся	-6324
▁состоявшихся	-6325
▁справляешься	-6326
▁существующую	-6327
▁технического	-6328
▁технологиями	-6329
▁убежденность	-6330
▁упорствовала	-6331
▁учреждениями	-6332
▁центральному	-6333
▁чрезвычайная	-6334
▁чрезвычайных	-6335
▁эксплуатации	-6336
сопредседатель	-6337
▁благодарность	-6338
▁возвращайтесь	-6339
▁всестороннему	-6340
▁выздоровления	-6341
▁вытаскивающий	-6342
▁государствами	-6343
▁добросовестно	-6344
▁доказательств	-6345
▁знаменитостью	-6346
▁использованию	-6347
▁климатические	-6348
▁консервативен	-6349
▁кровоточащему	-6350
▁международное	-6351
▁незамеченными	-6352
▁необязательно	-6353
▁неофициальных	-6354
▁неприятностей	-6355
▁нерегулярного	-6356
▁несправедливы	-6357
▁обязательства	-6358
▁опубликования	-6359
▁осуществление	-6360
▁осуществлении	-6361
▁отвратительна	-6362
▁очаровательно	-6363
▁палестинского	-6364
▁переполняться	-6365
▁повстанческие	-6366
▁подготавливаю	-6367
▁почувствовать	-6368
▁правительства	-6369
▁правительство	-6370
▁предоставлять	-6371
▁представителя	-6372
▁прелюбодеяние	-6373
▁прелюбодеянию	-6374
▁прелюбодеяния	-6375
▁продвигаеться	-6376
▁промышленного	-6377
▁развивающихся	-6378
▁разрабатывать	-6379
▁родственников	-6380
▁самодовольные	-6381
▁соображениями	-6382
▁сопротивляясь	-6383
▁существования	-6384
▁транспортному	-6385
▁удерживающего	-6386
▁удостаиваются	-6387
▁ультрабольшую	-6388
▁устанавливает	-6389
▁чрезвычайного	-6390
▁вознаграждение	-6391
▁восторжествует	-6392
▁индивидуальный	-6393
▁международному	-6394
▁миротворческих	-6395
▁насильственных	-6396
▁недозволенного	-6397
▁несправедливых	-6398
▁отпечатывается	-6399
▁предоставления	-6400
▁предостерегает	-6401
▁предотвращения	-6402
▁предполагаемая	-6403
▁представителем	-6404
▁представленных	-6405
▁препятствующих	-6406
▁развивающимися	-6407
▁репродуктивный	-6408
▁рождественской	-6409
▁соответствующе	-6410
▁сопредседателя	-6411
▁сотрудничества	-6412
▁сотрудничестве	-6413
▁сотрудничество	-6414
▁справедливость	-6415
▁стремительного	-6416
▁удовлетворение	-6417
▁удостовериться	-6418
▁финансирование	-6419
▁целесообразным	-6420
▁аудиовизуальной	-6421
▁государственная	-6422
▁государственным	-6423
▁злоупотребление	-6424
▁любодействовали	-6425
▁мотивированному	-6426
▁негостеприимным	-6427
▁непосредственно	-6428
▁предварительным	-6429
▁предостережения	-6430
▁предусматривает	-6431
▁продолжительный	-6432
▁психологической	-6433
▁рассматривается	-6434
▁самоотверженные	-6435
▁самостоятельным	-6436
#1	-6437
(*	-6438
(0	-6439
(1	-6440
*)	-6441
+1	-6442
+2	-6443
,3	-6444
--	-6445
0"	-6446
0/	-6447
02	-6448
03	-6449
04	-6450
05	-6451
06	-6452
08	-6453
09	-6454
0:	-6455
1'	-6456
1/	-6457
10	-6458
11	-6459
12	-6460
13	-6461
15	-6462
1:	-6463
2)	-6464
2,	-6465
2-	-6466
2.	-6467
20	-6468
21	-6469
22	-6470
23	-6471
24	-6472
25	-6473
26	-6474
27	-6475
29	-6476
2:	-6477
3-	-6478
30	-6479
31	-6480
34	-6481
35	-6482
37	-6483
3:	-6484
4,	-6485
42	-6486
43	-6487
44	-6488
49	-6489
4:	-6490
5-	-6491
5/	-6492
50	-6493
51	-6494
52	-6495
55	-6496
56	-6497
57	-6498
58	-6499
5:	-6500
6/	-6501
60	-6502
61	-6503
68	-6504
69	-6505
6:	-6506
7)	-6507
7/	-6508
70	-6509
78	-6510
8,	-6511
8.	-6512
86	-6513
8:	-6514
9,	-6515
9.	-6516
93	-6517
98	-6518
99	-6519
9:	-6520
:/	-6521
;(	-6522
[,	-6523
[[	-6524
]]	-6525
ab	-6526
ap	-6527
ar	-6528
au	-6529
aw	-6530
ax	-6531
ay	-6532
ba	-6533
bc	-6534
be	-6535
bl	-6536
br	-6537
by	-6538
ca	-6539
cc	-6540
ck	-6541
co	-6542
cr	-6543
cu	-6544
dd	-6545
do	-6546
ec	-6547
ee	-6548
el	-6549
em	-6550
es	-6551
ev	-6552
ew	-6553
ex	-6554
ey	-6555
fo	-6556
ga	-6557
go	-6558
gp	-6559
gr	-6560
gs	-6561
he	-6562
hi	-6563
ho	-6564
hr	-6565
hu	-6566
ia	-6567
ii	-6568
il	-6569
im	-6570
io	-6571
je	-6572
jo	-6573
ju	-6574
kn	-6575
ku	-6576
ll	-6577
lu	-6578
ma	-6579
mb	-6580
mi	-6581
mj	-6582
mm	-6583
mn	-6584
mo	-6585
ms	-6586
mu	-6587
nc	-6588
nd	-6589
nf	-6590
ng	-6591
ni	-6592
nm	-6593
nn	-6594
nt	-6595
nu	-6596
oc	-6597
of	-6598
oi	-6599
ot	-6600
pc	-6601
pd	-6602
ph	-6603
pi	-6604
pm	-6605
pp	-6606
pr	-6607
pt	-6608
rg	-6609
ri	-6610
ro	-6611
rr	-6612
ru	-6613
ry	-6614
sa	-6615
sh	-6616
si	-6617
sk	-6618
sp	-6619
ss	-6620
su	-6621
ta	-6622
ti	-6623
tl	-6624
tm	-6625
to	-6626
tr	-6627
ts	-6628
tt	-6629
tu	-6630
tw	-6631
ty	-6632
ua	-6633
ub	-6634
up	-6635
us	-6636
va	-6637
ve	-6638
vs	-6639
wa	-6640
wh	-6641
wn	-6642
xm	-6643
xo	-6644
yo	-6645
yp	-6646
yt	-6647
аа	-6648
аб	-6649
ав	-6650
аг	-6651
ад	-6652
ае	-6653
аж	-6654
аз	-6655
аи	-6656
ай	-6657
ак	-6658
ао	-6659
ап	-6660
ар	-6661
ас	-6662
ат	-6663
аф	-6664
ац	-6665
ач	-6666
аш	-6667
ащ	-6668
аю	-6669
ая	-6670
аё	-6671
бб	-6672
бв	-6673
бд	-6674
бк	-6675
бн	-6676
бс	-6677
бт	-6678
бх	-6679
бщ	-6680
бъ	-6681
бь	-6682
бю	-6683
бё	-6684
вв	-6685
вд	-6686
вз	-6687
вк	-6688
вм	-6689
вн	-6690
вп	-6691
вр	-6692
вс	-6693
вт	-6694
вц	-6695
вч	-6696
вш	-6697
вь	-6698
гг	-6699
гд	-6700
гк	-6701
гл	-6702
гм	-6703
гн	-6704
гр	-6705
гт	-6706
дб	-6707
дв	-6708
дг	-6709
дд	-6710
дк	-6711
дп	-6712
дс	-6713
дт	-6714
дц	-6715
дч	-6716
дъ	-6717
дя	-6718
дё	-6719
еа	-6720
еб	-6721
ег	-6722
ед	-6723
еж	-6724
еи	-6725
ел	-6726
ео	-6727
еу	-6728
еф	-6729
ех	-6730
ец	-6731
еч	-6732
еш	-6733
ещ	-6734
ею	-6735
ея	-6736
её	-6737
жб	-6738
жж	-6739
жк	-6740
жл	-6741
жм	-6742
жн	-6743
жч	-6744
жь	-6745
зб	-6746
зв	-6747
зг	-6748
зд	-6749
зе	-6750
зж	-6751
зк	-6752
зл	-6753
зм	-6754
зн	-6755
зр	-6756
зс	-6757
зь	-6758
иа	-6759
иб	-6760
ив	-6761
иг	-6762
ие	-6763
иж	-6764
ии	-6765
ий	-6766
ик	-6767
ио	-6768
иу	-6769
иц	-6770
ич	-6771
иш	-6772
ищ	-6773
иэ	-6774
ию	-6775
ия	-6776
йа	-6777
йл	-6778
йм	-6779
йн	-6780
йр	-6781
йт	-6782
йц	-6783
йч	-6784
йш	-6785
кв	-6786
кж	-6787
кз	-6788
кк	-6789
км	-6790
кн	-6791
кр	-6792
кц	-6793
кэ	-6794
лг	-6795
лд	-6796
лж	-6797
лк	-6798
лл	-6799
лм	-6800
лн	-6801
лс	-6802
лф	-6803
лх	-6804
лё	-6805
мб	-6806
мк	-6807
мн	-6808
мп	-6809
мр	-6810
мс	-6811
мт	-6812
мф	-6813
мь	-6814
мэ	-6815
мю	-6816
мя	-6817
нб	-6818
нв	-6819
нг	-6820
нд	-6821
нн	-6822
нр	-6823
нф	-6824
нц	-6825
нч	-6826
нщ	-6827
нё	-6828
ов	-6829
ог	-6830
ое	-6831
ож	-6832
оз	-6833
ои	-6834
ой	-6835
ок	-6836
ом	-6837
оо	-6838
оп	-6839
ор	-6840
оу	-6841
оф	-6842
ох	-6843
оц	-6844
оч	-6845
ош	-6846
ощ	-6847
оэ	-6848
ою	-6849
оя	-6850
оё	-6851
пк	-6852
пн	-6853
пп	-6854
пр	-6855
пс	-6856
пт	-6857
пц	-6858
пч	-6859
пь	-6860
рб	-6861
рв	-6862
рг	-6863
рд	-6864
рж	-6865
рз	-6866
рк	-6867
рл	-6868
рн	-6869
рп	-6870
рр	-6871
рх	-6872
рц	-6873
рш	-6874
рё	-6875
сб	-6876
св	-6877
сг	-6878
сд	-6879
см	-6880
сн	-6881
сп	-6882
сф	-6883
сх	-6884
сч	-6885
сш	-6886
сэ	-6887
сю	-6888
тв	-6889
тд	-6890
тк	-6891
тм	-6892
тн	-6893
тп	-6894
тс	-6895
тт	-6896
тч	-6897
тэ	-6898
уа	-6899
уб	-6900
ув	-6901
уг	-6902
уд	-6903
уе	-6904
уж	-6905
уз	-6906
уи	-6907
уй	-6908
ук	-6909
ул	-6910
ун	-6911
уо	-6912
уп	-6913
ур	-6914
ух	-6915
уч	-6916
уш	-6917
ущ	-6918
фб	-6919
фл	-6920
фт	-6921
фф	-6922
фэ	-6923
хв	-6924
хг	-6925
хе	-6926
хл	-6927
хм	-6928
хн	-6929
хр	-6930
хс	-6931
ху	-6932
цв	-6933
цг	-6934
цо	-6935
цр	-6936
цц	-6937
чк	-6938
чл	-6939
чн	-6940
чр	-6941
чт	-6942
чш	-6943
чё	-6944
шк	-6945
шм	-6946
шн	-6947
шп	-6948
шт	-6949
шц	-6950
щр	-6951
ъе	-6952
ыб	-6953
ыг	-6954
ыд	-6955
ые	-6956
ыз	-6957
ый	-6958
ык	-6959
ыл	-6960
ым	-6961
ын	-6962
ып	-6963
ыр	-6964
ыс	-6965
ыт	-6966
ых	-6967
ыц	-6968
ыч	-6969
ыш	-6970
ыщ	-6971
ьб	-6972
ьг	-6973
ьд	-6974
ье	-6975
ьз	-6976
ьк	-6977
ьм	-6978
ьн	-6979
ьо	-6980
ьс	-6981
ьт	-6982
ьч	-6983
ьш	-6984
эд	-6985
эк	-6986
эн	-6987
эт	-6988
эф	-6989
юа	-6990
юб	-6991
юг	-6992
юд	-6993
юл	-6994
юн	-6995
юс	-6996
юц	-6997
юч	-6998
ющ	-6999
яб	-7000
яв	-7001
яд	-7002
яе	-7003
яз	-7004
яи	-7005
яй	-7006
як	-7007
ям	-7008
ян	-7009
яр	-7010
яс	-7011
яц	-7012
яч	-7013
яш	-7014
ящ	-7015
яя	-7016
ёл	-7017
ён	-7018
ёр	-7019
ќа	-7020
ќе	-7021
ќн	-7022
ամ	-7023
գա	-7024
դր	-7025
եա	-7026
խա	-7027
հա	-7028
հկ	-7029
հն	-7030
մա	-7031
մբ	-7032
մի	-7033
նա	-7034
նդ	-7035
նե	-7036
նի	-7037
րա	-7038
րբ	-7039
րի	-7040
▁'	-7041
▁9	-7042
▁\	-7043
▁l	-7044
▁р	-7045
▁щ	-7046
▁ա	-7047
▁խ	-7048
▁ն	-7049
"..	-7050
/11	-7051
/23	-7052
/28	-7053
/50	-7054
/51	-7055
0/1	-7056
001	-7057
002	-7058
005	-7059
006	-7060
009	-7061
00:	-7062
010	-7063
011	-7064
015	-7065
016	-7066
0:1	-7067
1).	-7068
1/1	-7069
11.	-7070
128	-7071
1:0	-7072
1:1	-7073
1:5	-7074
200	-7075
214	-7076
22/	-7077
287	-7078
2:3	-7079
2:5	-7080
300	-7081
428	-7082
4:5	-7083
5/2	-7084
5/5	-7085
500	-7086
5:1	-7087
60.	-7088
6:1	-7089
6:2	-7090
6:5	-7091
7),	-7092
780	-7093
8:5	-7094
9,8	-7095
91)	-7096
:00	-7097
:03	-7098
:09	-7099
:24	-7100
:27	-7101
:31	-7102
:33	-7103
:44	-7104
;(,	-7105
=15	-7106
all	-7107
ash	-7108
aur	-7109
bac	-7110
cia	-7111
cti	-7112
ctu	-7113
don	-7114
ect	-7115
een	-7116
enc	-7117
end	-7118
etw	-7119
gam	-7120
gps	-7121
gra	-7122
hin	-7123
hra	-7124
ien	-7125
ila	-7126
ime	-7127
ind	-7128
iou	-7129
kno	-7130
lab	-7131
led	-7132
len	-7133
loc	-7134
lou	-7135
lum	-7136
man	-7137
mes	-7138
mme	-7139
new	-7140
nex	-7141
nic	-7142
nme	-7143
num	-7144
one	-7145
onf	-7146
onn	-7147
opi	-7148
oss	-7149
ost	-7150
oun	-7151
pte	-7152
rad	-7153
raw	-7154
rec	-7155
rem	-7156
ren	-7157
rev	-7158
rie	-7159
rin	-7160
rom	-7161
rum	-7162
ste	-7163
ter	-7164
tly	-7165
ubj	-7166
umb	-7167
umj	-7168
ved	-7169
ver	-7170
xop	-7171
you	-7172
ype	-7173
yte	-7174
yth	-7175
аби	-7176
або	-7177
ава	-7178
ави	-7179
аво	-7180
ага	-7181
аго	-7182
ада	-7183
ади	-7184
адо	-7185
аду	-7186
аем	-7187
ает	-7188
ажа	-7189
азо	-7190
ака	-7191
аки	-7192
ако	-7193
аку	-7194
ала	-7195
але	-7196
али	-7197
ало	-7198
алу	-7199
алы	-7200
аля	-7201
ами	-7202
амм	-7203
амо	-7204
амы	-7205
ана	-7206
ани	-7207
ано	-7208
аны	-7209
апа	-7210
апо	-7211
ара	-7212
аре	-7213
ари	-7214
аро	-7215
ару	-7216
аря	-7217
аси	-7218
аст	-7219
ата	-7220
ате	-7221
ати	-7222
ато	-7223
аты	-7224
ать	-7225
аци	-7226
аша	-7227
аше	-7228
аши	-7229
ащи	-7230
ают	-7231
бав	-7232
бви	-7233
бег	-7234
беж	-7235
бей	-7236
бен	-7237
бес	-7238
бет	-7239
бил	-7240
бит	-7241
бла	-7242
бле	-7243
бля	-7244
бно	-7245
бня	-7246
бог	-7247
бое	-7248
боз	-7249
бои	-7250
бор	-7251
бос	-7252
боч	-7253
бро	-7254
бры	-7255
бст	-7256
бхо	-7257
бще	-7258
быч	-7259
вае	-7260
важ	-7261
вам	-7262
ват	-7263
ваю	-7264
вду	-7265
вды	-7266
век	-7267
вел	-7268
вес	-7269
вещ	-7270
вив	-7271
виг	-7272
вид	-7273
вие	-7274
виж	-7275
виз	-7276
вии	-7277
вил	-7278
вим	-7279
вис	-7280
вит	-7281
виц	-7282
вия	-7283
вли	-7284
вме	-7285
вни	-7286
вны	-7287
воб	-7288
вог	-7289
вои	-7290
вом	-7291
вон	-7292
воч	-7293
вою	-7294
воя	-7295
воё	-7296
вре	-7297
вст	-7298
вуй	-7299
вуш	-7300
вше	-7301
вяж	-7302
вяз	-7303
вят	-7304
габ	-7305
гад	-7306
газ	-7307
ган	-7308
гап	-7309
гар	-7310
гаю	-7311
гги	-7312
ген	-7313
гет	-7314
гии	-7315
гим	-7316
гио	-7317
гих	-7318
гич	-7319
гко	-7320
гло	-7321
гна	-7322
гну	-7323
гня	-7324
гоб	-7325
гов	-7326
гог	-7327
гол	-7328
гон	-7329
гоп	-7330
гор	-7331
гос	-7332
гот	-7333
гре	-7334
гро	-7335
гут	-7336
дав	-7337
дат	-7338
дац	-7339
даю	-7340
дби	-7341
дго	-7342
деа	-7343
ден	-7344
дес	-7345
деш	-7346
дею	-7347
дже	-7348
джи	-7349
дие	-7350
дил	-7351
дис	-7352
дит	-7353
диу	-7354
дич	-7355
диш	-7356
дка	-7357
дке	-7358
дки	-7359
дла	-7360
дли	-7361
дло	-7362
дна	-7363
дну	-7364
дны	-7365
дня	-7366
доб	-7367
дое	-7368
дож	-7369
доз	-7370
доп	-7371
дос	-7372
дот	-7373
дох	-7374
дпи	-7375
дпо	-7376
дра	-7377
дре	-7378
дсе	-7379
дст	-7380
дуа	-7381
дук	-7382
дум	-7383
дур	-7384
дуч	-7385
дущ	-7386
дую	-7387
дцы	-7388
дчи	-7389
дша	-7390
дый	-7391
дят	-7392
ебе	-7393
ебя	-7394
ева	-7395
еве	-7396
еви	-7397
ево	-7398
евы	-7399
ега	-7400
еда	-7401
еде	-7402
еди	-7403
едо	-7404
еду	-7405
едь	-7406
еем	-7407
еет	-7408
ежа	-7409
езо	-7410
ейс	-7411
ека	-7412
еко	-7413
еку	-7414
ела	-7415
еле	-7416
ели	-7417
елы	-7418
ель	-7419
еля	-7420
еми	-7421
емл	-7422
емн	-7423
емп	-7424
емс	-7425
емт	-7426
емц	-7427
емь	-7428
енд	-7429
енк	-7430
енн	-7431
енс	-7432
енц	-7433
енщ	-7434
енё	-7435
ера	-7436
ерв	-7437
ерг	-7438
ерд	-7439
ерж	-7440
ерз	-7441
ери	-7442
ерк	-7443
ерм	-7444
ерн	-7445
еро	-7446
ерп	-7447
ерс	-7448
еру	-7449
ерх	-7450
ерш	-7451
ерю	-7452
еря	-7453
ерё	-7454
есе	-7455
ест	-7456
есь	-7457
етв	-7458
етк	-7459
етн	-7460
ето	-7461
етс	-7462
етт	-7463
еци	-7464
еча	-7465
ече	-7466
еша	-7467
еши	-7468
ещи	-7469
жас	-7470
ждо	-7471
жей	-7472
жер	-7473
жиб	-7474
жие	-7475
жии	-7476
жис	-7477
жия	-7478
жми	-7479
жне	-7480
жни	-7481
жня	-7482
жон	-7483
жчи	-7484
зав	-7485
зал	-7486
зам	-7487
зар	-7488
збе	-7489
збо	-7490
зва	-7491
зве	-7492
зви	-7493
звы	-7494
зго	-7495
зда	-7496
зду	-7497
зек	-7498
зжа	-7499
зле	-7500
зло	-7501
зме	-7502
змо	-7503
зне	-7504
зно	-7505
зны	-7506
знь	-7507
зоч	-7508
зык	-7509
зяи	-7510
иби	-7511
ибо	-7512
иви	-7513
иво	-7514
ивы	-7515
ига	-7516
иги	-7517
иго	-7518
ида	-7519
иде	-7520
иди	-7521
идо	-7522
иду	-7523
иев	-7524
ием	-7525
ика	-7526
ико	-7527
или	-7528
илу	-7529
иль	-7530
имо	-7531
ине	-7532
ини	-7533
ино	-7534
ину	-7535
ины	-7536
иня	-7537
ира	-7538
ире	-7539
ири	-7540
иро	-7541
иса	-7542
исо	-7543
ист	-7544
ись	-7545
ися	-7546
ите	-7547
ито	-7548
ихо	-7549
ици	-7550
иче	-7551
ишь	-7552
йде	-7553
йду	-7554
йла	-7555
йлы	-7556
йма	-7557
йми	-7558
йна	-7559
йно	-7560
йны	-7561
йру	-7562
йсо	-7563
йст	-7564
йча	-7565
йши	-7566
каб	-7567
каж	-7568
каз	-7569
каи	-7570
кай	-7571
как	-7572
кап	-7573
кас	-7574
кат	-7575
кац	-7576
кач	-7577
ква	-7578
кви	-7579
кей	-7580
кер	-7581
кли	-7582
кно	-7583
ког	-7584
кок	-7585
коп	-7586
кор	-7587
кот	-7588
коф	-7589
кош	-7590
кре	-7591
кру	-7592
кса	-7593
ксо	-7594
кст	-7595
ксу	-7596
кта	-7597
кте	-7598
кту	-7599
кты	-7600
кум	-7601
кут	-7602
куш	-7603
кущ	-7604
кци	-7605
лаб	-7606
лав	-7607
лаг	-7608
лад	-7609
лае	-7610
лаж	-7611
лаз	-7612
лал	-7613
лам	-7614
лар	-7615
лас	-7616
лат	-7617
лах	-7618
лач	-7619
лаш	-7620
лаю	-7621
лго	-7622
лгу	-7623
лда	-7624
лдо	-7625
леб	-7626
лег	-7627
лед	-7628
леж	-7629
лез	-7630
леи	-7631
лем	-7632
лен	-7633
лер	-7634
лес	-7635
лет	-7636
леф	-7637
лец	-7638
леч	-7639
лея	-7640
лжа	-7641
лжи	-7642
либ	-7643
лив	-7644
лиг	-7645
лие	-7646
лиж	-7647
лий	-7648
лик	-7649
лил	-7650
лим	-7651
лин	-7652
лип	-7653
лир	-7654
лис	-7655
лит	-7656
лич	-7657
лию	-7658
лле	-7659
лна	-7660
лни	-7661
лно	-7662
лня	-7663
лод	-7664
лок	-7665
лом	-7666
лон	-7667
лос	-7668
лох	-7669
луж	-7670
луш	-7671
лфо	-7672
лха	-7673
лыб	-7674
льб	-7675
льн	-7676
льт	-7677
льч	-7678
люб	-7679
люд	-7680
люс	-7681
люч	-7682
люш	-7683
ляе	-7684
лям	-7685
лян	-7686
ляю	-7687
ляя	-7688
мав	-7689
мад	-7690
мае	-7691
май	-7692
мал	-7693
мам	-7694
мат	-7695
мах	-7696
мац	-7697
мее	-7698
мет	-7699
мех	-7700
меш	-7701
мещ	-7702
мею	-7703
мии	-7704
мик	-7705
мим	-7706
мит	-7707
мич	-7708
мми	-7709
мму	-7710
мна	-7711
мне	-7712
мно	-7713
мны	-7714
мог	-7715
мой	-7716
моо	-7717
моч	-7718
мощ	-7719
мре	-7720
мру	-7721
мск	-7722
мст	-7723
муд	-7724
мыс	-7725
мыш	-7726
нав	-7727
наг	-7728
над	-7729
нае	-7730
наж	-7731
нан	-7732
нау	-7733
нах	-7734
нач	-7735
наю	-7736
нге	-7737
нги	-7738
нда	-7739
нди	-7740
ндо	-7741
нду	-7742
неч	-7743
ниб	-7744
низ	-7745
нил	-7746
ним	-7747
нин	-7748
нис	-7749
них	-7750
ниц	-7751
нич	-7752
ниш	-7753
нна	-7754
нни	-7755
нну	-7756
нны	-7757
ног	-7758
ноз	-7759
нол	-7760
ноп	-7761
нор	-7762
нос	-7763
нра	-7764
нса	-7765
нст	-7766
нсу	-7767
нсы	-7768
нта	-7769
нте	-7770
нто	-7771
нуй	-7772
нут	-7773
нци	-7774
нча	-7775
нче	-7776
нчи	-7777
нял	-7778
нят	-7779
няш	-7780
обе	-7781
общ	-7782
обы	-7783
обя	-7784
ова	-7785
ове	-7786
ови	-7787
ово	-7788
ову	-7789
овы	-7790
ога	-7791
ого	-7792
оде	-7793
оди	-7794
одо	-7795
оем	-7796
оен	-7797
оет	-7798
оже	-7799
ока	-7800
око	-7801
ола	-7802
оле	-7803
оли	-7804
оло	-7805
оль	-7806
олю	-7807
оля	-7808
оми	-7809
оне	-7810
оно	-7811
оот	-7812
опа	-7813
оре	-7814
оро	-7815
оси	-7816
ост	-7817
ота	-7818
оте	-7819
оти	-7820
ото	-7821
оть	-7822
офи	-7823
охо	-7824
оча	-7825
оче	-7826
очи	-7827
пад	-7828
пай	-7829
пас	-7830
паю	-7831
пен	-7832
пер	-7833
пет	-7834
печ	-7835
пис	-7836
пка	-7837
пла	-7838
пло	-7839
плу	-7840
плы	-7841
пни	-7842
пны	-7843
поз	-7844
пон	-7845
поч	-7846
ппе	-7847
ппы	-7848
пры	-7849
пуб	-7850
пус	-7851
пчи	-7852
раа	-7853
раг	-7854
рад	-7855
рае	-7856
раж	-7857
раи	-7858
рай	-7859
рал	-7860
рао	-7861
раф	-7862
рах	-7863
рац	-7864
рач	-7865
раш	-7866
ращ	-7867
раю	-7868
рби	-7869
рва	-7870
рво	-7871
рго	-7872
рда	-7873
рдо	-7874
реа	-7875
рев	-7876
рег	-7877
реж	-7878
реи	-7879
рек	-7880
рео	-7881
реп	-7882
рес	-7883
рех	-7884
реч	-7885
рза	-7886
рив	-7887
риг	-7888
рид	-7889
рие	-7890
риз	-7891
рий	-7892
рил	-7893
рим	-7894
рио	-7895
рип	-7896
рис	-7897
рит	-7898
риу	-7899
риц	-7900
риш	-7901
риэ	-7902
рию	-7903
рка	-7904
рко	-7905
рль	-7906
рмо	-7907
рму	-7908
рна	-7909
рни	-7910
рно	-7911
рны	-7912
рня	-7913
роб	-7914
рог	-7915
рое	-7916
рож	-7917
рои	-7918
рол	-7919
роп	-7920
рор	-7921
рос	-7922
роф	-7923
рох	-7924
роц	-7925
роч	-7926
рош	-7927
рощ	-7928
роя	-7929
рре	-7930
рри	-7931
рси	-7932
рсо	-7933
рст	-7934
рти	-7935
рто	-7936
рть	-7937
руб	-7938
руд	-7939
руж	-7940
руз	-7941
рум	-7942
руп	-7943
руш	-7944
рую	-7945
рци	-7946
рче	-7947
рые	-7948
рыт	-7949
рых	-7950
ряж	-7951
рям	-7952
ряс	-7953
ряч	-7954
сам	-7955
сан	-7956
сах	-7957
саю	-7958
сая	-7959
сви	-7960
сво	-7961
свя	-7962
сде	-7963
сев	-7964
сед	-7965
сен	-7966
сес	-7967
сех	-7968
сец	-7969
сив	-7970
сиг	-7971
сии	-7972
сий	-7973
сио	-7974
сис	-7975
ску	-7976
сла	-7977
слу	-7978
слы	-7979
сма	-7980
сме	-7981
смо	-7982
соб	-7983
соо	-7984
соп	-7985
спа	-7986
спе	-7987
спи	-7988
спу	-7989
сра	-7990
сре	-7991
ссо	-7992
сст	-7993
стк	-7994
стн	-7995
стр	-7996
стс	-7997
стя	-7998
суа	-7999
суж	-8000
сун	-8001
сча	-8002
сче	-8003
сше	-8004
сьб	-8005
сье	-8006
сяч	-8007
тав	-8008
тад	-8009
тае	-8010
таж	-8011
тай	-8012
тал	-8013
тас	-8014
тац	-8015
тащ	-8016
таю	-8017
тва	-8018
тво	-8019
тда	-8020
тде	-8021
тег	-8022
тез	-8023
тек	-8024
тен	-8025
теп	-8026
тес	-8027
тиз	-8028
тил	-8029
тис	-8030
тит	-8031
тих	-8032
тиц	-8033
тич	-8034
тиш	-8035
тка	-8036
тко	-8037
тла	-8038
тли	-8039
тло	-8040
тни	-8041
тны	-8042
тоб	-8043
тог	-8044
тод	-8045
тож	-8046
тои	-8047
ток	-8048
тол	-8049
тон	-8050
топ	-8051
тос	-8052
тот	-8053
тош	-8054
тоя	-8055
тре	-8056
тру	-8057
тря	-8058
тст	-8059
тто	-8060
туд	-8061
туо	-8062
тче	-8063
тье	-8064
тьс	-8065
тят	-8066
уба	-8067
уби	-8068
уво	-8069
уго	-8070
уда	-8071
уде	-8072
уди	-8073
удо	-8074
уду	-8075
удш	-8076
удь	-8077
ует	-8078
ужа	-8079
уже	-8080
ужи	-8081
ука	-8082
уко	-8083
уку	-8084
ула	-8085
ули	-8086
уль	-8087
уля	-8088
уна	-8089
уни	-8090
упа	-8091
упи	-8092
упо	-8093
ура	-8094
ури	-8095
уро	-8096
уры	-8097
уса	-8098
усе	-8099
уси	-8100
усо	-8101
уст	-8102
усь	-8103
ута	-8104
уто	-8105
уть	-8106
ухо	-8107
уше	-8108
уши	-8109
уще	-8110
ущи	-8111
уют	-8112
фек	-8113
фер	-8114
фес	-8115
фик	-8116
фия	-8117
фон	-8118
фра	-8119
фро	-8120
фру	-8121
фта	-8122
хва	-8123
хво	-8124
хго	-8125
хен	-8126
хет	-8127
хло	-8128
хни	-8129
хно	-8130
хну	-8131
хоб	-8132
хож	-8133
хоз	-8134
хол	-8135
хот	-8136
хоч	-8137
хра	-8138
хри	-8139
цгп	-8140
цей	-8141
цем	-8142
цес	-8143
цие	-8144
цик	-8145
цио	-8146
чае	-8147
чаи	-8148
чат	-8149
чащ	-8150
чее	-8151
чей	-8152
чес	-8153
чеш	-8154
чив	-8155
чил	-8156
чин	-8157
чис	-8158
чко	-8159
чку	-8160
чли	-8161
чна	-8162
чни	-8163
чну	-8164
чны	-8165
чше	-8166
чши	-8167
шав	-8168
шаг	-8169
шам	-8170
шан	-8171
шаю	-8172
шев	-8173
шее	-8174
шем	-8175
шен	-8176
шет	-8177
шеф	-8178
шил	-8179
ших	-8180
шки	-8181
шко	-8182
шку	-8183
шля	-8184
шма	-8185
шне	-8186
шни	-8187
шно	-8188
шот	-8189
шпи	-8190
шту	-8191
шую	-8192
щай	-8193
щед	-8194
щет	-8195
щие	-8196
щим	-8197
щин	-8198
щит	-8199
ъем	-8200
ыва	-8201
ыда	-8202
ыли	-8203
ыло	-8204
ыми	-8205
ына	-8206
ыно	-8207
ыра	-8208
ыст	-8209
ыся	-8210
ыти	-8211
ыть	-8212
ыхо	-8213
ыча	-8214
ыша	-8215
ыши	-8216
ьбы	-8217
ька	-8218
ько	-8219
ьку	-8220
ьма	-8221
ьми	-8222
ьмо	-8223
ьна	-8224
ьни	-8225
ьно	-8226
ьст	-8227
ься	-8228
ьша	-8229
ьше	-8230
эди	-8231
эко	-8232
эри	-8233
юбо	-8234
юго	-8235
югу	-8236
юде	-8237
юди	-8238
юме	-8239
юст	-8240
юци	-8241
юча	-8242
яви	-8243
явл	-8244
ядо	-8245
яем	-8246
яет	-8247
яка	-8248
яла	-8249
яли	-8250
ямо	-8251
яни	-8252
яно	-8253
ята	-8254
яте	-8255
яти	-8256
ято	-8257
яты	-8258
ять	-8259
ячи	-8260
яще	-8261
ящи	-8262
яют	-8263
ёла	-8264
ёрт	-8265
ќна	-8266
ագա	-8267
ախա	-8268
անա	-8269
անդ	-8270
արա	-8271
արի	-8272
եահ	-8273
խար	-8274
հան	-8275
մբի	-8276
մին	-8277
ներ	-8278
րբե	-8279
րին	-8280
▁(*	-8281
▁(0	-8282
▁(1	-8283
▁+1	-8284
▁..	-8285
▁00	-8286
▁03	-8287
▁04	-8288
▁05	-8289
▁09	-8290
▁1'	-8291
▁2,	-8292
▁20	-8293
▁24	-8294
▁28	-8295
▁29	-8296
▁2:	-8297
▁3-	-8298
▁3:	-8299
▁4,	-8300
▁44	-8301
▁51	-8302
▁57	-8303
▁68	-8304
▁70	-8305
▁ac	-8306
▁av	-8307
▁bc	-8308
▁be	-8309
▁ca	-8310
▁ci	-8311
▁co	-8312
▁cr	-8313
▁cu	-8314
▁ec	-8315
▁ho	-8316
▁ht	-8317
▁jo	-8318
▁ju	-8319
▁le	-8320
▁no	-8321
▁oc	-8322
▁on	-8323
▁or	-8324
▁pa	-8325
▁po	-8326
▁pr	-8327
▁sa	-8328
▁se	-8329
▁si	-8330
▁sk	-8331
▁tw	-8332
▁un	-8333
▁up	-8334
▁vi	-8335
▁vs	-8336
▁we	-8337
▁wh	-8338
▁ww	-8339
▁xm	-8340
▁аб	-8341
▁ав	-8342
▁аз	-8343
▁ай	-8344
▁ак	-8345
▁ал	-8346
▁ап	-8347
▁ар	-8348
▁ас	-8349
▁ат	-8350
▁аф	-8351
▁бд	-8352
▁би	-8353
▁бл	-8354
▁бр	-8355
▁бю	-8356
▁бя	-8357
▁вв	-8358
▁вк	-8359
▁вл	-8360
▁вм	-8361
▁вн	-8362
▁вр	-8363
▁вт	-8364
▁вч	-8365
▁ги	-8366
▁гу	-8367
▁дв	-8368
▁дл	-8369
▁дн	-8370
▁др	-8371
▁дс	-8372
▁ег	-8373
▁ед	-8374
▁ез	-8375
▁ем	-8376
▁ес	-8377
▁ещ	-8378
▁жд	-8379
▁жу	-8380
▁зв	-8381
▁зе	-8382
▁зл	-8383
▁зн	-8384
▁ид	-8385
▁ик	-8386
▁ил	-8387
▁ит	-8388
▁ию	-8389
▁кл	-8390
▁кр	-8391
▁кэ	-8392
▁ле	-8393
▁лу	-8394
▁ля	-8395
▁мн	-8396
▁мэ	-8397
▁мю	-8398
▁мя	-8399
▁нр	-8400
▁ню	-8401
▁ов	-8402
▁ож	-8403
▁оз	-8404
▁оп	-8405
▁ор	-8406
▁оф	-8407
▁оц	-8408
▁ош	-8409
▁ощ	-8410
▁пл	-8411
▁пс	-8412
▁пт	-8413
▁пы	-8414
▁сб	-8415
▁св	-8416
▁сг	-8417
▁сд	-8418
▁ск	-8419
▁сл	-8420
▁сн	-8421
▁сп	-8422
▁ср	-8423
▁сс	-8424
▁сч	-8425
▁сэ	-8426
▁сю	-8427
▁тв	-8428
▁тр	-8429
▁тэ	-8430
▁тя	-8431
▁ув	-8432
▁уг	-8433
▁уд	-8434
▁уз	-8435
▁уи	-8436
▁ук	-8437
▁ул	-8438
▁уп	-8439
▁ут	-8440
▁уч	-8441
▁уш	-8442
▁фб	-8443
▁фи	-8444
▁фэ	-8445
▁хм	-8446
▁чр	-8447
▁шу	-8448
▁эл	-8449
▁эн	-8450
▁эр	-8451
▁эт	-8452
▁эф	-8453
▁яб	-8454
▁яв	-8455
▁яз	-8456
▁яй	-8457
▁ям	-8458
▁яс	-8459
▁ящ	-8460
▁ќе	-8461
▁ադ	-8462
"...	-8463
-200	-8464
/287	-8465
/300	-8466
/507	-8467
1/12	-8468
160.	-8469
1780	-8470
1:11	-8471
2879	-8472
3:24	-8473
3:28	-8474
5:19	-8475
80/1	-8476
8:55	-8477
9,86	-8478
91),	-8479
911.	-8480
:33)	-8481
aila	-8482
ally	-8483
asha	-8484
chin	-8485
coun	-8486
date	-8487
dion	-8488
enda	-8489
epte	-8490
hing	-8491
hyte	-8492
ient	-8493
igam	-8494
inde	-8495
ined	-8496
ious	-8497
know	-8498
laur	-8499
mber	-8500
nmen	-8501
oing	-8502
olum	-8503
oman	-8504
omme	-8505
onet	-8506
onte	-8507
opic	-8508
orum	-8509
oste	-8510
reci	-8511
rent	-8512
ries	-8513
ring	-8514
sual	-8515
thra	-8516
tion	-8517
ubje	-8518
ulou	-8519
umji	-8520
very	-8521
ween	-8522
wled	-8523
ybac	-8524
ypes	-8525
адно	-8526
аешь	-8527
ажду	-8528
акти	-8529
алан	-8530
алла	-8531
амма	-8532
амми	-8533
ание	-8534
ания	-8535
аной	-8536
ансы	-8537
асти	-8538
асто	-8539
асть	-8540
ации	-8541
ация	-8542
беда	-8543
беде	-8544
бежа	-8545
бежд	-8546
бель	-8547
бено	-8548
бере	-8549
беса	-8550
бива	-8551
биты	-8552
бить	-8553
бишь	-8554
блем	-8555
блях	-8556
боде	-8557
боди	-8558
боль	-8559
боро	-8560
бору	-8561
бост	-8562
бота	-8563
боте	-8564
боты	-8565
боче	-8566
бско	-8567
буду	-8568
быва	-8569
быти	-8570
ваем	-8571
вами	-8572
вани	-8573
вара	-8574
варе	-8575
вате	-8576
веда	-8577
веди	-8578
веду	-8579
ведь	-8580
века	-8581
веку	-8582
вена	-8583
вени	-8584
вень	-8585
вере	-8586
верж	-8587
верк	-8588
веру	-8589
верш	-8590
верю	-8591
веря	-8592
весе	-8593
вети	-8594
веты	-8595
веть	-8596
вива	-8597
вига	-8598
вигу	-8599
вижу	-8600
визу	-8601
вила	-8602
вило	-8603
вилу	-8604
виль	-8605
вино	-8606
вину	-8607
винь	-8608
виро	-8609
виси	-8610
вист	-8611
вита	-8612
вите	-8613
вити	-8614
виты	-8615
виях	-8616
вляя	-8617
вник	-8618
вной	-8619
вном	-8620
вные	-8621
вный	-8622
вных	-8623
вова	-8624
воей	-8625
воем	-8626
воли	-8627
волю	-8628
воля	-8629
воря	-8630
воче	-8631
вояж	-8632
вращ	-8633
вует	-8634
вуку	-8635
вуча	-8636
вучи	-8637
вуют	-8638
вший	-8639
вших	-8640
выча	-8641
вяжу	-8642
вяза	-8643
вято	-8644
вяща	-8645
гада	-8646
гады	-8647
гаем	-8648
гази	-8649
газо	-8650
галь	-8651
гана	-8652
гани	-8653
гану	-8654
ганы	-8655
гара	-8656
гате	-8657
гаци	-8658
гела	-8659
гелы	-8660
гени	-8661
гент	-8662
гими	-8663
гите	-8664
гиче	-8665
гкое	-8666
глий	-8667
гнул	-8668
гобо	-8669
гова	-8670
гово	-8671
говы	-8672
года	-8673
годо	-8674
году	-8675
гола	-8676
голо	-8677
голя	-8678
гони	-8679
гонь	-8680
гопо	-8681
горо	-8682
гост	-8683
гота	-8684
гото	-8685
граж	-8686
грам	-8687
граф	-8688
гуля	-8689
гущи	-8690
дава	-8691
дави	-8692
дако	-8693
дале	-8694
дана	-8695
дане	-8696
дани	-8697
дано	-8698
дань	-8699
даст	-8700
дате	-8701
даци	-8702
дают	-8703
двер	-8704
деал	-8705
делё	-8706
дени	-8707
дент	-8708
держ	-8709
дест	-8710
диви	-8711
дико	-8712
димо	-8713
диму	-8714
димы	-8715
диум	-8716
дках	-8717
дком	-8718
днее	-8719
дней	-8720
дние	-8721
дний	-8722
дних	-8723
дниц	-8724
дное	-8725
дной	-8726
дную	-8727
дные	-8728
дова	-8729
довл	-8730
дово	-8731
долж	-8732
доло	-8733
допе	-8734
доро	-8735
дост	-8736
драв	-8737
дско	-8738
дста	-8739
дует	-8740
дуна	-8741
духе	-8742
дучи	-8743
дуще	-8744
дущи	-8745
дуют	-8746
дыва	-8747
дьма	-8748
дьте	-8749
евым	-8750
егод	-8751
един	-8752
едут	-8753
езно	-8754
ейст	-8755
ейся	-8756
ейча	-8757
емер	-8758
емир	-8759
емле	-8760
емлю	-8761
емля	-8762
емны	-8763
емож	-8764
емте	-8765
емца	-8766
емью	-8767
емья	-8768
енан	-8769
енда	-8770
ендл	-8771
енед	-8772
енен	-8773
ениш	-8774
енке	-8775
енна	-8776
енни	-8777
енну	-8778
енны	-8779
енст	-8780
енти	-8781
енто	-8782
енци	-8783
еньг	-8784
еньо	-8785
еняю	-8786
епри	-8787
ерва	-8788
ерво	-8789
ерву	-8790
ервы	-8791
ерга	-8792
ерда	-8793
ерев	-8794
ереж	-8795
ерен	-8796
ереч	-8797
ержа	-8798
ержи	-8799
ержу	-8800
ерза	-8801
ерми	-8802
ерне	-8803
ерно	-8804
ерну	-8805
ерны	-8806
ерня	-8807
ерпи	-8808
ерпя	-8809
ерре	-8810
ерри	-8811
ерсо	-8812
ерст	-8813
ертв	-8814
ерте	-8815
ерти	-8816
ерто	-8817
ерть	-8818
ерша	-8819
ерши	-8820
ерье	-8821
еспо	-8822
есси	-8823
еста	-8824
ести	-8825
есто	-8826
етво	-8827
етей	-8828
етим	-8829
етка	-8830
етко	-8831
етно	-8832
етны	-8833
етня	-8834
етст	-8835
еции	-8836
ечен	-8837
жаем	-8838
жале	-8839
жало	-8840
жалу	-8841
жани	-8842
жащи	-8843
жело	-8844
жена	-8845
жест	-8846
жете	-8847
жешь	-8848
жива	-8849
жига	-8850
жида	-8851
жими	-8852
жите	-8853
жное	-8854
жной	-8855
жные	-8856
жных	-8857
жона	-8858
забо	-8859
зала	-8860
зали	-8861
зани	-8862
зано	-8863
зате	-8864
зать	-8865
заци	-8866
звон	-8867
здне	-8868
здох	-8869
земп	-8870
зили	-8871
зило	-8872
зиро	-8873
знет	-8874
знов	-8875
зным	-8876
зных	-8877
зова	-8878
зово	-8879
золю	-8880
зски	-8881
зуль	-8882
ибер	-8883
ивет	-8884
илфо	-8885
инан	-8886
иран	-8887
иски	-8888
иску	-8889
исто	-8890
исхо	-8891
итай	-8892
ится	-8893
иции	-8894
иция	-8895
йная	-8896
йной	-8897
йный	-8898
йных	-8899
йпри	-8900
йста	-8901
йший	-8902
казо	-8903
казы	-8904
кака	-8905
каки	-8906
како	-8907
кала	-8908
ками	-8909
кате	-8910
каци	-8911
кзем	-8912
кива	-8913
кида	-8914
клад	-8915
клон	-8916
кова	-8917
ково	-8918
коко	-8919
коле	-8920
коли	-8921
коло	-8922
колы	-8923
коль	-8924
коне	-8925
кора	-8926
коре	-8927
коро	-8928
кост	-8929
коши	-8930
крас	-8931
кращ	-8932
кста	-8933
ксто	-8934
ктер	-8935
ктро	-8936
кулы	-8937
кури	-8938
куси	-8939
куча	-8940
куша	-8941
кущи	-8942
лаба	-8943
лабе	-8944
лабо	-8945
лабы	-8946
лава	-8947
лаго	-8948
лада	-8949
ладо	-8950
лады	-8951
лаем	-8952
лает	-8953
лажа	-8954
лажд	-8955
лаза	-8956
лала	-8957
лали	-8958
лара	-8959
лари	-8960
лару	-8961
ласи	-8962
ласт	-8963
лать	-8964
лахо	-8965
лаша	-8966
лают	-8967
леди	-8968
леду	-8969
лежа	-8970
лежи	-8971
леза	-8972
лейт	-8973
лели	-8974
лему	-8975
лена	-8976
лени	-8977
лено	-8978
лены	-8979
лере	-8980
лест	-8981
лети	-8982
лефо	-8983
лжен	-8984
лжно	-8985
либо	-8986
ливо	-8987
ливы	-8988
лиги	-8989
лижа	-8990
лиже	-8991
лики	-8992
лико	-8993
ликт	-8994
лили	-8995
лима	-8996
лино	-8997
лину	-8998
лины	-8999
липа	-9000
лиро	-9001
лиру	-9002
лиса	-9003
лита	-9004
лица	-9005
личе	-9006
лишь	-9007
лная	-9008
лной	-9009
лова	-9010
лови	-9011
лово	-9012
ловы	-9013
лоде	-9014
лодо	-9015
лоды	-9016
ложе	-9017
ложи	-9018
лока	-9019
локи	-9020
лома	-9021
лона	-9022
лоня	-9023
лоре	-9024
лоса	-9025
лосо	-9026
лост	-9027
лосы	-9028
лохи	-9029
лубл	-9030
лубу	-9031
лужа	-9032
лужд	-9033
лупо	-9034
лухо	-9035
луча	-9036
лучи	-9037
льбо	-9038
льду	-9039
льза	-9040
лька	-9041
льна	-9042
льни	-9043
льны	-9044
льст	-9045
льчи	-9046
льша	-9047
льши	-9048
льшо	-9049
любя	-9050
люда	-9051
люде	-9052
люди	-9053
люси	-9054
люци	-9055
люча	-9056
ляем	-9057
ляет	-9058
ляла	-9059
ляли	-9060
ляни	-9061
ляну	-9062
ляры	-9063
ляты	-9064
маве	-9065
мада	-9066
мает	-9067
мала	-9068
маль	-9069
мани	-9070
мате	-9071
мать	-9072
маци	-9073
мают	-9074
мбер	-9075
меет	-9076
мели	-9077
мене	-9078
мент	-9079
мень	-9080
мета	-9081
меши	-9082
мешь	-9083
меют	-9084
мики	-9085
мили	-9086
мино	-9087
мися	-9088
мить	-9089
миче	-9090
мное	-9091
мным	-9092
мных	-9093
мога	-9094
могу	-9095
моон	-9096
мост	-9097
мотр	-9098
мощи	-9099
мрем	-9100
мсти	-9101
муни	-9102
муше	-9103
мыва	-9104
нава	-9105
наем	-9106
нает	-9107
нако	-9108
нали	-9109
нало	-9110
наль	-9111
нами	-9112
нана	-9113
нани	-9114
наро	-9115
нача	-9116
начи	-9117
нают	-9118
нгит	-9119
нгли	-9120
него	-9121
неде	-9122
нена	-9123
нени	-9124
нено	-9125
нерг	-9126
нест	-9127
несу	-9128
нета	-9129
нето	-9130
нибу	-9131
нико	-9132
нику	-9133
нила	-9134
ними	-9135
нины	-9136
нист	-9137
нита	-9138
ните	-9139
нить	-9140
ниче	-9141
нишь	-9142
нная	-9143
ннет	-9144
нник	-9145
нные	-9146
нных	-9147
нове	-9148
новл	-9149
новы	-9150
ноги	-9151
ноже	-9152
ноло	-9153
номи	-9154
носи	-9155
ност	-9156
нсен	-9157
нски	-9158
нско	-9159
нспо	-9160
нтов	-9161
нтра	-9162
нули	-9163
нуют	-9164
нхен	-9165
нции	-9166
нчик	-9167
няем	-9168
няла	-9169
нящи	-9170
обра	-9171
обща	-9172
огра	-9173
одол	-9174
онны	-9175
онст	-9176
орит	-9177
оста	-9178
осто	-9179
пара	-9180
паса	-9181
паси	-9182
пают	-9183
пере	-9184
пеци	-9185
пина	-9186
писо	-9187
пите	-9188
пник	-9189
пных	-9190
пода	-9191
поди	-9192
пози	-9193
пока	-9194
поко	-9195
пола	-9196
поль	-9197
поми	-9198
порт	-9199
поря	-9200
пост	-9201
прав	-9202
прек	-9203
приг	-9204
прии	-9205
прим	-9206
прос	-9207
пура	-9208
раам	-9209
раба	-9210
рабо	-9211
рава	-9212
раве	-9213
равл	-9214
раву	-9215
равы	-9216
рага	-9217
раги	-9218
рада	-9219
ради	-9220
радо	-9221
раем	-9222
рает	-9223
разо	-9224
рака	-9225
рако	-9226
рала	-9227
рали	-9228
раль	-9229
рана	-9230
ране	-9231
рани	-9232
ранц	-9233
раны	-9234
раня	-9235
раон	-9236
рати	-9237
рато	-9238
рату	-9239
рать	-9240
раци	-9241
рачи	-9242
раши	-9243
раща	-9244
рдов	-9245
рева	-9246
рево	-9247
реву	-9248
рега	-9249
реда	-9250
реде	-9251
редо	-9252
реду	-9253
режд	-9254
река	-9255
реки	-9256
реко	-9257
релю	-9258
реля	-9259
ремя	-9260
рена	-9261
рени	-9262
рень	-9263
ренё	-9264
репо	-9265
ресо	-9266
рест	-9267
ресу	-9268
рето	-9269
реча	-9270
рече	-9271
рива	-9272
риво	-9273
рига	-9274
риги	-9275
риго	-9276
рием	-9277
рика	-9278
рике	-9279
рико	-9280
рили	-9281
рило	-9282
рими	-9283
рина	-9284
рини	-9285
рино	-9286
рира	-9287
рисо	-9288
рист	-9289
рису	-9290
рите	-9291
риэл	-9292
рият	-9293
ркон	-9294
рной	-9295
рные	-9296
рным	-9297
рных	-9298
роби	-9299
ровл	-9300
рово	-9301
ровь	-9302
ровя	-9303
рога	-9304
роги	-9305
рого	-9306
роди	-9307
родо	-9308
роду	-9309
роет	-9310
рожа	-9311
роих	-9312
роки	-9313
роли	-9314
роль	-9315
роме	-9316
ронн	-9317
роно	-9318
ропо	-9319
роро	-9320
роса	-9321
роси	-9322
росо	-9323
росс	-9324
рост	-9325
рось	-9326
роти	-9327
рото	-9328
рсов	-9329
ртия	-9330
ртно	-9331
ртом	-9332
ртуо	-9333
рубу	-9334
руги	-9335
руго	-9336
руда	-9337
руди	-9338
рудь	-9339
рука	-9340
руко	-9341
руку	-9342
рута	-9343
руто	-9344
руша	-9345
руши	-9346
рции	-9347
рций	-9348
рыми	-9349
рыты	-9350
рыть	-9351
рядо	-9352
рямо	-9353
рямы	-9354
рята	-9355
рячи	-9356
рячу	-9357
рящи	-9358
сает	-9359
сали	-9360
сама	-9361
сани	-9362
сано	-9363
сать	-9364
сают	-9365
севы	-9366
сего	-9367
сень	-9368
сест	-9369
сиво	-9370
сивы	-9371
сило	-9372
силь	-9373
сиро	-9374
ское	-9375
скре	-9376
смот	-9377
сная	-9378
снил	-9379
снов	-9380
сном	-9381
сный	-9382
собо	-9383
собы	-9384
сова	-9385
сове	-9386
сово	-9387
сона	-9388
сооб	-9389
соча	-9390
соче	-9391
спод	-9392
спор	-9393
спос	-9394
спра	-9395
спре	-9396
спро	-9397
сред	-9398
ссам	-9399
ссер	-9400
ссиг	-9401
ссий	-9402
ссио	-9403
ссис	-9404
сска	-9405
ссле	-9406
ссма	-9407
ссмо	-9408
сста	-9409
ссту	-9410
ссчи	-9411
стаи	-9412
стан	-9413
стат	-9414
стаё	-9415
ствл	-9416
стег	-9417
стем	-9418
стиа	-9419
стиг	-9420
стиж	-9421
стим	-9422
стия	-9423
стку	-9424
стни	-9425
стны	-9426
стой	-9427
стом	-9428
стор	-9429
стот	-9430
сточ	-9431
стры	-9432
стье	-9433
стья	-9434
суда	-9435
суди	-9436
сужд	-9437
суль	-9438
суще	-9439
сход	-9440
сыла	-9441
сыми	-9442
сяче	-9443
тади	-9444
таем	-9445
таже	-9446
таки	-9447
тала	-9448
тали	-9449
таль	-9450
тами	-9451
тани	-9452
тано	-9453
тара	-9454
тары	-9455
тате	-9456
тато	-9457
тать	-9458
таци	-9459
тащи	-9460
тают	-9461
твер	-9462
твет	-9463
твор	-9464
тези	-9465
теле	-9466
тело	-9467
тено	-9468
терв	-9469
терн	-9470
теро	-9471
тета	-9472
тето	-9473
тико	-9474
тили	-9475
тими	-9476
тись	-9477
тите	-9478
тить	-9479
тиче	-9480
тишь	-9481
тиям	-9482
ткой	-9483
тлан	-9484
тлет	-9485
тлож	-9486
тный	-9487
тных	-9488
тобо	-9489
тове	-9490
тови	-9491
тога	-9492
тоге	-9493
тока	-9494
токо	-9495
тола	-9496
толь	-9497
тому	-9498
топи	-9499
тора	-9500
тори	-9501
торо	-9502
торы	-9503
тосе	-9504
тост	-9505
точа	-9506
тран	-9507
трах	-9508
треб	-9509
трои	-9510
трон	-9511
тума	-9512
тупа	-9513
туть	-9514
тыва	-9515
тями	-9516
уете	-9517
уешь	-9518
улио	-9519
усти	-9520
усту	-9521
усть	-9522
ующи	-9523
фере	-9524
фери	-9525
фиби	-9526
фици	-9527
фиче	-9528
фоне	-9529
френ	-9530
фтах	-9531
хами	-9532
ходе	-9533
хоже	-9534
хожи	-9535
холо	-9536
хоро	-9537
хоте	-9538
хоти	-9539
хоче	-9540
хран	-9541
цари	-9542
цать	-9543
цвет	-9544
цеду	-9545
целе	-9546
цель	-9547
целя	-9548
цена	-9549
цени	-9550
цент	-9551
цену	-9552
цери	-9553
цикл	-9554
чает	-9555
чале	-9556
чало	-9557
чаль	-9558
чани	-9559
чаро	-9560
част	-9561
чате	-9562
чаты	-9563
чать	-9564
чаях	-9565
чеви	-9566
челл	-9567
чени	-9568
чень	-9569
чере	-9570
черо	-9571
чест	-9572
чето	-9573
четы	-9574
чиву	-9575
чивы	-9576
чили	-9577
чило	-9578
чини	-9579
числ	-9580
чков	-9581
чкой	-9582
чком	-9583
чном	-9584
чную	-9585
чтож	-9586
чься	-9587
шага	-9588
шает	-9589
шала	-9590
шать	-9591
шают	-9592
шеве	-9593
шевы	-9594
шело	-9595
шени	-9596
шину	-9597
шины	-9598
шист	-9599
шите	-9600
шишь	-9601
шком	-9602
шлом	-9603
шний	-9604
шное	-9605
шовы	-9606
щена	-9607
щени	-9608
щете	-9609
щето	-9610
щими	-9611
щине	-9612
щины	-9613
ычно	-9614
ьюте	-9615
ьющи	-9616
эйсо	-9617
юсти	-9618
ября	-9619
янию	-9620
яния	-9621
яной	-9622
ясни	-9623
ятия	-9624
ятом	-9625
ёлая	-9626
ագահ	-9627
ախար	-9628
անախ	-9629
արին	-9630
խմբի	-9631
▁(00	-9632
▁(19	-9633
▁02:	-9634
▁10:	-9635
▁149	-9636
▁198	-9637
▁21:	-9638
▁245	-9639
▁2:2	-9640
▁3:2	-9641
▁3:3	-9642
▁4:5	-9643
▁51,	-9644
▁6:1	-9645
▁8:5	-9646
▁ant	-9647
▁app	-9648
▁bet	-9649
▁cal	-9650
▁cor	-9651
▁cra	-9652
▁cur	-9653
▁ent	-9654
▁gra	-9655
▁hom	-9656
▁mac	-9657
▁man	-9658
▁map	-9659
▁pan	-9660
▁pre	-9661
▁sav	-9662
▁thi	-9663
▁tit	-9664
▁vie	-9665
▁way	-9666
▁xop	-9667
▁абе	-9668
▁абу	-9669
▁ава	-9670
▁адл	-9671
▁аза	-9672
▁ази	-9673
▁айз	-9674
▁ала	-9675
▁але	-9676
▁ара	-9677
▁ари	-9678
▁аст	-9679
▁ата	-9680
▁бак	-9681
▁бал	-9682
▁бей	-9683
▁бер	-9684
▁бес	-9685
▁бля	-9686
▁бое	-9687
▁бож	-9688
▁бой	-9689
▁бор	-9690
▁бос	-9691
▁бре	-9692
▁бру	-9693
▁буд	-9694
▁бук	-9695
▁важ	-9696
▁вви	-9697
▁веж	-9698
▁вез	-9699
▁вес	-9700
▁вет	-9701
▁веч	-9702
▁вещ	-9703
▁взг	-9704
▁взл	-9705
▁взо	-9706
▁взя	-9707
▁виж	-9708
▁вин	-9709
▁вир	-9710
▁вку	-9711
▁вли	-9712
▁влю	-9713
▁вне	-9714
▁вни	-9715
▁вов	-9716
▁вод	-9717
▁вои	-9718
▁вок	-9719
▁вол	-9720
▁вон	-9721
▁воо	-9722
▁воп	-9723
▁вор	-9724
▁вос	-9725
▁впи	-9726
▁вро	-9727
▁всп	-9728
▁вче	-9729
▁выб	-9730
▁вые	-9731
▁выз	-9732
▁вын	-9733
▁вып	-9734
▁выр	-9735
▁вых	-9736
▁выш	-9737
▁габ	-9738
▁газ	-9739
▁гар	-9740
▁ген	-9741
▁гор	-9742
▁гос	-9743
▁гре	-9744
▁гро	-9745
▁даб	-9746
▁даж	-9747
▁дво	-9748
▁дву	-9749
▁дев	-9750
▁дек	-9751
▁дем	-9752
▁ден	-9753
▁джу	-9754
▁диа	-9755
▁дне	-9756
▁дог	-9757
▁дож	-9758
▁доз	-9759
▁доп	-9760
▁доч	-9761
▁дош	-9762
▁дро	-9763
▁еги	-9764
▁еди	-9765
▁ест	-9766
▁жас	-9767
▁жда	-9768
▁жен	-9769
▁жер	-9770
▁жут	-9771
▁заб	-9772
▁зав	-9773
▁заг	-9774
▁зад	-9775
▁зай	-9776
▁зак	-9777
▁зал	-9778
▁зам	-9779
▁зат	-9780
▁заф	-9781
▁зах	-9782
▁зач	-9783
▁заш	-9784
▁защ	-9785
▁зая	-9786
▁зде	-9787
▁зер	-9788
▁зло	-9789
▁злю	-9790
▁изб	-9791
▁изд	-9792
▁изм	-9793
▁изн	-9794
▁изы	-9795
▁изю	-9796
▁инс	-9797
▁инт	-9798
▁инф	-9799
▁ист	-9800
▁ита	-9801
▁каз	-9802
▁кай	-9803
▁кал	-9804
▁кам	-9805
▁кан	-9806
▁кап	-9807
▁кар	-9808
▁кас	-9809
▁кач	-9810
▁ква	-9811
▁клу	-9812
▁клю	-9813
▁ког	-9814
▁коп	-9815
▁кор	-9816
▁кот	-9817
▁коф	-9818
▁кош	-9819
▁кра	-9820
▁кре	-9821
▁кст	-9822
▁куи	-9823
▁куп	-9824
▁кур	-9825
▁кух	-9826
▁кэр	-9827
▁лан	-9828
▁лич	-9829
▁лов	-9830
▁люб	-9831
▁люд	-9832
▁лях	-9833
▁май	-9834
▁мал	-9835
▁мас	-9836
▁мат	-9837
▁мед	-9838
▁меж	-9839
▁мен	-9840
▁мер	-9841
▁мет	-9842
▁мех	-9843
▁мик	-9844
▁мил	-9845
▁мис	-9846
▁мит	-9847
▁мое	-9848
▁моз	-9849
▁мок	-9850
▁мом	-9851
▁мон	-9852
▁мор	-9853
▁мос	-9854
▁мус	-9855
▁мух	-9856
▁муч	-9857
▁мыс	-9858
▁мыш	-9859
▁мэг	-9860
▁наб	-9861
▁наз	-9862
▁наи	-9863
▁най	-9864
▁нал	-9865
▁нан	-9866
▁нап	-9867
▁нар	-9868
▁нах	-9869
▁нац	-9870
▁нач	-9871
▁неб	-9872
▁нев	-9873
▁нед	-9874
▁нез	-9875
▁нел	-9876
▁нен	-9877
▁неп	-9878
▁нер	-9879
▁неч	-9880
▁ниж	-9881
▁ник	-9882
▁нис	-9883
▁нищ	-9884
▁нов	-9885
▁нож	-9886
▁нок	-9887
▁ном	-9888
▁нор	-9889
▁ноч	-9890
▁нра	-9891
▁нуж	-9892
▁обе	-9893
▁оби	-9894
▁обр	-9895
▁обс	-9896
▁обу	-9897
▁общ	-9898
▁обя	-9899
▁ову	-9900
▁огн	-9901
▁оди	-9902
▁ока	-9903
▁око	-9904
▁окт	-9905
▁опе	-9906
▁опу	-9907
▁опя	-9908
▁оре	-9909
▁ору	-9910
▁отв	-9911
▁оте	-9912
▁отк	-9913
▁отм	-9914
▁ото	-9915
▁отс	-9916
▁отч	-9917
▁офи	-9918
▁очи	-9919
▁пай	-9920
▁пап	-9921
▁пат	-9922
▁пац	-9923
▁пес	-9924
▁пиц	-9925
▁пла	-9926
▁плю	-9927
▁поб	-9928
▁пов	-9929
▁пог	-9930
▁пое	-9931
▁пож	-9932
▁пои	-9933
▁пок	-9934
▁пом	-9935
▁поп	-9936
▁пох	-9937
▁поч	-9938
▁пош	-9939
▁поэ	-9940
▁пси	-9941
▁пти	-9942
▁пук	-9943
▁пут	-9944
▁раб	-9945
▁рай	-9946
▁рам	-9947
▁ран	-9948
▁рег	-9949
▁ред	-9950
▁реж	-9951
▁рез	-9952
▁реи	-9953
▁рей	-9954
▁рек	-9955
▁рем	-9956
▁реп	-9957
▁реч	-9958
▁рож	-9959
▁рок	-9960
▁рот	-9961
▁сак	-9962
▁сбе	-9963
▁сва	-9964
▁све	-9965
▁сдо	-9966
▁сед	-9967
▁сен	-9968
▁сиг	-9969
▁сит	-9970
▁сли	-9971
▁слы	-9972
▁сни	-9973
▁сно	-9974
▁сог	-9975
▁сод	-9976
▁сож	-9977
▁соо	-9978
▁соп	-9979
▁сос	-9980
▁соф	-9981
▁соц	-9982
▁соч	-9983
▁сош	-9984
▁сра	-9985
▁сре	-9986
▁сро	-9987
▁суд	-9988
▁сум	-9989
▁сфо	-9990
▁сча	-9991
▁счи	-9992
▁сыр	-9993
▁таг	-9994
▁тан	-9995
▁теб	-9996
▁теп	-9997
▁тог	-9998
▁тож	-9999
▁тол	-10000
▁точ	-10001
▁тош	-10002
▁тун	-10003
▁убо	-10004
▁убь	-10005
▁уве	-10006
▁уво	-10007
▁уде	-10008
▁уми	-10009
▁уси	-10010
▁ухо	-10011
▁учи	-10012
▁уше	-10013
▁фак	-10014
▁фер	-10015
▁фор	-10016
▁фра	-10017
▁фро	-10018
▁фру	-10019
▁хва	-10020
▁хво	-10021
▁хоб	-10022
▁хоз	-10023
▁хол	-10024
▁хот	-10025
▁хоч	-10026
▁хра	-10027
▁чар	-10028
▁чер	-10029
▁чис	-10030
▁чре	-10031
▁чёр	-10032
▁шав	-10033
▁шан	-10034
▁шей	-10035
▁шля	-10036
▁шту	-10037
▁эко	-10038
▁экс	-10039
▁эле	-10040
▁эри	-10041
▁язы	-10042
▁ящи	-10043
▁եահ	-10044
▁համ	-10045
▁հան	-10046
▁նախ	-10047
-2003	-10048
/2001	-10049
/2006	-10050
/507)	-10051
1/287	-10052
14428	-10053
21780	-10054
2879.	-10055
:03:3	-10056
=1516	-10057
ation	-10058
ction	-10059
ctual	-10060
dated	-10061
dient	-10062
encou	-10063
endar	-10064
eptem	-10065
igami	-10066
locat	-10067
nknow	-10068
olumn	-10069
omand	-10070
ommen	-10071
ontel	-10072
osted	-10073
preci	-10074
remul	-10075
thing	-10076
ulous	-10077
umber	-10078
vaila	-10079
vious	-10080
ается	-10081
актив	-10082
ально	-10083
аннет	-10084
антов	-10085
атель	-10086
аться	-10087
бавно	-10088
бания	-10089
басто	-10090
бенно	-10091
берре	-10092
бился	-10093
биоло	-10094
бираю	-10095
блема	-10096
блему	-10097
блена	-10098
блики	-10099
блико	-10100
блужд	-10101
блюда	-10102
бодей	-10103
бодея	-10104
божни	-10105
бозна	-10106
бойду	-10107
босно	-10108
ботят	-10109
бража	-10110
брать	-10111
бходи	-10112
бычно	-10113
ваемо	-10114
ваете	-10115
вайте	-10116
варей	-10117
варен	-10118
варти	-10119
ваюсь	-10120
вающе	-10121
вающи	-10122
вений	-10123
венни	-10124
венно	-10125
венци	-10126
верем	-10127
верен	-10128
верно	-10129
верны	-10130
верня	-10131
верши	-10132
верюш	-10133
ветст	-10134
винья	-10135
висть	-10136
витан	-10137
вител	-10138
вится	-10139
влени	-10140
вляем	-10141
вляла	-10142
вляли	-10143
вника	-10144
водчи	-10145
воему	-10146
ворил	-10147
ворим	-10148
ворит	-10149
ворня	-10150
вости	-10151
вочек	-10152
вочка	-10153
враща	-10154
вреди	-10155
вства	-10156
вство	-10157
вству	-10158
вуешь	-10159
вухго	-10160
вучит	-10161
вушка	-10162
вующи	-10163
вшего	-10164
вятся	-10165
гаема	-10166
гайте	-10167
гация	-10168
гласи	-10169
гляну	-10170
говые	-10171
годар	-10172
годно	-10173
госте	-10174
готов	-10175
гражд	-10176
грамм	-10177
графо	-10178
гуляр	-10179
гутся	-10180
гущих	-10181
дание	-10182
дания	-10183
данья	-10184
дарна	-10185
дарно	-10186
дарст	-10187
дации	-10188
дацию	-10189
дающи	-10190
двига	-10191
дейст	-10192
делал	-10193
делан	-10194
делаю	-10195
делен	-10196
дение	-10197
дении	-10198
дения	-10199
денно	-10200
джете	-10201
диков	-10202
димое	-10203
димым	-10204
динен	-10205
динст	-10206
диови	-10207
длежи	-10208
дника	-10209
днико	-10210
днима	-10211
дними	-10212
дниче	-10213
дному	-10214
довое	-10215
дозво	-10216
должа	-10217
должи	-10218
долов	-10219
доста	-10220
досто	-10221
дровя	-10222
дрост	-10223
дседа	-10224
дства	-10225
дство	-10226
дству	-10227
дуаль	-10228
думал	-10229
дущих	-10230
дующи	-10231
дцать	-10232
дывай	-10233
езжаю	-10234
езных	-10235
ейски	-10236
ейчас	-10237
ектив	-10238
емные	-10239
енедж	-10240
енила	-10241
енили	-10242
ениро	-10243
енито	-10244
енишь	-10245
ениям	-10246
енной	-10247
енную	-10248
енный	-10249
енным	-10250
енско	-10251
ентра	-10252
енции	-10253
енщин	-10254
еньги	-10255
енька	-10256
енько	-10257
еньку	-10258
еньша	-10259
еняет	-10260
еняют	-10261
ервой	-10262
ервый	-10263
ердца	-10264
ерево	-10265
ерега	-10266
ереда	-10267
ерени	-10268
ерепо	-10269
еркну	-10270
ерным	-10271
ерпре	-10272
ерсти	-10273
ертва	-10274
еспеч	-10275
етари	-10276
етаря	-10277
етают	-10278
етвор	-10279
етели	-10280
етель	-10281
етика	-10282
етили	-10283
етить	-10284
етной	-10285
етные	-10286
етски	-10287
етско	-10288
еться	-10289
жайте	-10290
жанию	-10291
жасно	-10292
ждана	-10293
ждени	-10294
ждуна	-10295
желал	-10296
женст	-10297
жется	-10298
жжена	-10299
жибта	-10300
жмите	-10301
жнему	-10302
жност	-10303
жчина	-10304
зации	-10305
зация	-10306
зволи	-10307
зволя	-10308
здает	-10309
земца	-10310
знава	-10311
знако	-10312
знани	-10313
значи	-10314
зовал	-10315
зских	-10316
ивать	-10317
илета	-10318
илфор	-10319
испро	-10320
исход	-10321
итаем	-10322
итате	-10323
ихудш	-10324
ишься	-10325
йдете	-10326
йдешь	-10327
йдите	-10328
йного	-10329
йства	-10330
йство	-10331
йтись	-10332
йфрен	-10333
кажды	-10334
кажет	-10335
казал	-10336
каива	-10337
каких	-10338
какое	-10339
канно	-10340
квида	-10341
клада	-10342
кладо	-10343
ключа	-10344
кляну	-10345
кмоон	-10346
ковал	-10347
когда	-10348
койно	-10349
койте	-10350
колдо	-10351
комим	-10352
кроно	-10353
крыты	-10354
крыть	-10355
кспер	-10356
ксплу	-10357
кумен	-10358
кундо	-10359
кунду	-10360
кусси	-10361
кущих	-10362
ладно	-10363
ладёт	-10364
лаете	-10365
лажен	-10366
ламен	-10367
ланни	-10368
ланта	-10369
ласно	-10370
ласти	-10371
лающи	-10372
ледни	-10373
лежал	-10374
ление	-10375
лении	-10376
лений	-10377
лению	-10378
ления	-10379
ленно	-10380
лерея	-10381
лести	-10382
лечет	-10383
ливаю	-10384
ливый	-10385
ливых	-10386
ликое	-10387
ликой	-10388
лимся	-10389
лиона	-10390
лицах	-10391
лично	-10392
ллаха	-10393
ллахо	-10394
ллаху	-10395
ллега	-10396
лного	-10397
ловек	-10398
логии	-10399
логич	-10400
логия	-10401
ложне	-10402
ломни	-10403
лосье	-10404
лоупо	-10405
лохие	-10406
лучен	-10407
лучии	-10408
лучши	-10409
лушай	-10410
лхани	-10411
лыбка	-10412
лышал	-10413
льбом	-10414
льник	-10415
льном	-10416
льные	-10417
льных	-10418
льтра	-10419
льчик	-10420
льшую	-10421
людет	-10422
лючен	-10423
маешь	-10424
мался	-10425
мание	-10426
мации	-10427
меешь	-10428
менда	-10429
менее	-10430
менен	-10431
мения	-10432
менно	-10433
менти	-10434
менто	-10435
мерте	-10436
мерти	-10437
мерть	-10438
месте	-10439
мести	-10440
меющи	-10441
мином	-10442
млены	-10443
мнить	-10444
мниче	-10445
мнишь	-10446
много	-10447
может	-10448
мости	-10449
мотре	-10450
мудри	-10451
мысле	-10452
наете	-10453
наешь	-10454
нании	-10455
народ	-10456
насто	-10457
ндата	-10458
нения	-10459
ненов	-10460
неуже	-10461
нечно	-10462
ниешь	-10463
ником	-10464
нимал	-10465
нимаю	-10466
нимая	-10467
ничен	-10468
ничто	-10469
нного	-10470
ногда	-10471
ногое	-10472
нопку	-10473
ности	-10474
нрави	-10475
нству	-10476
нуешь	-10477
нуйся	-10478
няемо	-10479
овать	-10480
ональ	-10481
ориги	-10482
отлан	-10483
парат	-10484
пасно	-10485
пахну	-10486
пенно	-10487
пеции	-10488
печно	-10489
пинат	-10490
писан	-10491
писка	-10492
плати	-10493
плохо	-10494
пника	-10495
покой	-10496
порно	-10497
пости	-10498
потре	-10499
ппози	-10500
праве	-10501
прави	-10502
правл	-10503
праши	-10504
преде	-10505
прест	-10506
прето	-10507
приим	-10508
прият	-10509
продо	-10510
пропо	-10511
просо	-10512
пусти	-10513
равля	-10514
равни	-10515
раете	-10516
раешь	-10517
ражда	-10518
ражен	-10519
раков	-10520
ракте	-10521
рался	-10522
ранцу	-10523
раона	-10524
раски	-10525
ратив	-10526
ратки	-10527
рации	-10528
рация	-10529
ргана	-10530
ргани	-10531
ргану	-10532
рганы	-10533
ревне	-10534
редст	-10535
режет	-10536
резвы	-10537
ректо	-10538
ремен	-10539
рения	-10540
ренно	-10541
ресов	-10542
реста	-10543
ривет	-10544
риков	-10545
рился	-10546
ринка	-10547
риско	-10548
ристи	-10549
ристы	-10550
рконн	-10551
рмаци	-10552
рмили	-10553
рмить	-10554
рного	-10555
рогой	-10556
родов	-10557
рокам	-10558
ронта	-10559
ропри	-10560
роско	-10561
рости	-10562
рость	-10563
рства	-10564
рство	-10565
ртный	-10566
ртуть	-10567
ругло	-10568
ругое	-10569
рудно	-10570
ружие	-10571
ружии	-10572
ружия	-10573
рукли	-10574
рукой	-10575
румен	-10576
рутой	-10577
рующе	-10578
рывай	-10579
рядом	-10580
сандр	-10581
сание	-10582
санию	-10583
сания	-10584
сающи	-10585
саясь	-10586
севыш	-10587
седни	-10588
сенья	-10589
сесси	-10590
сесто	-10591
силие	-10592
силий	-10593
силию	-10594
силия	-10595
сказа	-10596
скать	-10597
скова	-10598
следи	-10599
слыша	-10600
сните	-10601
снить	-10602
снова	-10603
снове	-10604
сновы	-10605
собой	-10606
сопре	-10607
спода	-10608
споди	-10609
спока	-10610
споко	-10611
споль	-10612
ссамб	-10613
ссвет	-10614
ссмот	-10615
ставл	-10616
стаем	-10617
стает	-10618
стала	-10619
стали	-10620
стана	-10621
стано	-10622
стать	-10623
ствля	-10624
ством	-10625
ствуй	-10626
ствую	-10627
стему	-10628
стери	-10629
стине	-10630
стину	-10631
стици	-10632
стник	-10633
стным	-10634
стове	-10635
стоко	-10636
стори	-10637
сторо	-10638
стоту	-10639
стояв	-10640
стоян	-10641
стоящ	-10642
страя	-10643
стрен	-10644
строй	-10645
ступо	-10646
сходи	-10647
сшего	-10648
сылая	-10649
таешь	-10650
тайте	-10651
тался	-10652
тания	-10653
таски	-10654
татов	-10655
таций	-10656
таюсь	-10657
твори	-10658
тегра	-10659
тенан	-10660
терда	-10661
териа	-10662
терне	-10663
теров	-10664
тивен	-10665
тивля	-10666
тивно	-10667
тизер	-10668
тикой	-10669
тогра	-10670
тории	-10671
торов	-10672
торой	-10673
тоско	-10674
тость	-10675
точно	-10676
трабо	-10677
трака	-10678
трана	-10679
тране	-10680
траны	-10681
трива	-10682
тстви	-10683
тству	-10684
умани	-10685
уступ	-10686
ующие	-10687
фесси	-10688
фибию	-10689
форму	-10690
фрика	-10691
фрике	-10692
ффери	-10693
цвета	-10694
целях	-10695
цента	-10696
центо	-10697
церии	-10698
циали	-10699
циона	-10700
чаива	-10701
чалей	-10702
чания	-10703
части	-10704
часто	-10705
ченны	-10706
черед	-10707
четов	-10708
четом	-10709
чивые	-10710
чился	-10711
чинаю	-10712
читан	-10713
шевый	-10714
шейся	-10715
шении	-10716
шению	-10717
шесть	-10718
шется	-10719
шийся	-10720
шисты	-10721
шками	-10722
шлого	-10723
шовый	-10724
щаешь	-10725
щайся	-10726
щайте	-10727
щание	-10728
щедро	-10729
щенно	-10730
ывать	-10731
ычной	-10732
ьмете	-10733
ьющим	-10734
эйсон	-10735
эконо	-10736
явить	-10737
ягкое	-10738
ятель	-10739
ագահն	-10740
ադրբե	-10741
ահներ	-10742
մանախ	-10743
նախար	-10744
▁02:3	-10745
▁02:4	-10746
▁02:5	-10747
▁04:3	-10748
▁05:4	-10749
▁06:2	-10750
▁06:5	-10751
▁09:2	-10752
▁10:1	-10753
▁16:1	-10754
▁2002	-10755
▁2005	-10756
▁2011	-10757
▁2015	-10758
▁21:0	-10759
▁21:5	-10760
▁29:0	-10761
▁55/2	-10762
▁55/5	-10763
▁57/3	-10764
▁anth	-10765
▁appe	-10766
▁join	-10767
▁laur	-10768
▁mach	-10769
▁skum	-10770
▁thes	-10771
▁thin	-10772
▁vsas	-10773
▁wayb	-10774
▁абуд	-10775
▁авра	-10776
▁аген	-10777
▁алек	-10778
▁апре	-10779
▁ариа	-10780
▁арми	-10781
▁ауди	-10782
▁баку	-10783
▁бега	-10784
▁бедо	-10785
▁бежа	-10786
▁безо	-10787
▁беле	-10788
▁бето	-10789
▁близ	-10790
▁боле	-10791
▁боля	-10792
▁борь	-10793
▁брай	-10794
▁брез	-10795
▁брим	-10796
▁буде	-10797
▁бури	-10798
▁быст	-10799
▁вари	-10800
▁ввер	-10801
▁верн	-10802
▁весе	-10803
▁весё	-10804
▁вече	-10805
▁взду	-10806
▁виде	-10807
▁види	-10808
▁вино	-10809
▁винс	-10810
▁внес	-10811
▁воен	-10812
▁возв	-10813
▁вооб	-10814
▁воро	-10815
▁ворч	-10816
▁впре	-10817
▁всев	-10818
▁всец	-10819
▁вско	-10820
▁вспы	-10821
▁выбе	-10822
▁выбо	-10823
▁выез	-10824
▁вызы	-10825
▁выне	-10826
▁выпа	-10827
▁выпи	-10828
▁выпо	-10829
▁выпу	-10830
▁выре	-10831
▁выру	-10832
▁высо	-10833
▁выст	-10834
▁выхо	-10835
▁газо	-10836
▁гара	-10837
▁гене	-10838
▁гени	-10839
▁гита	-10840
▁гово	-10841
▁годо	-10842
▁гола	-10843
▁горо	-10844
▁горя	-10845
▁госу	-10846
▁гото	-10847
▁дава	-10848
▁дади	-10849
▁дает	-10850
▁даль	-10851
▁двер	-10852
▁дека	-10853
▁дерь	-10854
▁дета	-10855
▁джей	-10856
▁джен	-10857
▁дово	-10858
▁дого	-10859
▁дока	-10860
▁дона	-10861
▁доно	-10862
▁допо	-10863
▁дост	-10864
▁доче	-10865
▁друз	-10866
▁егип	-10867
▁живо	-10868
▁жите	-10869
▁забе	-10870
▁забу	-10871
▁забы	-10872
▁зави	-10873
▁заво	-10874
▁задо	-10875
▁заду	-10876
▁зако	-10877
▁заку	-10878
▁заме	-10879
▁заму	-10880
▁зани	-10881
▁запи	-10882
▁запо	-10883
▁запр	-10884
▁зара	-10885
▁засе	-10886
▁заст	-10887
▁зато	-10888
▁зафи	-10889
▁захо	-10890
▁защи	-10891
▁знам	-10892
▁знач	-10893
▁зову	-10894
▁игро	-10895
▁игру	-10896
▁изба	-10897
▁изве	-10898
▁изви	-10899
▁изюм	-10900
▁имет	-10901
▁иноз	-10902
▁инст	-10903
▁инсц	-10904
▁инте	-10905
▁инфо	-10906
▁иска	-10907
▁исла	-10908
▁исра	-10909
▁исхо	-10910
▁исче	-10911
▁итог	-10912
▁кака	-10913
▁каки	-10914
▁како	-10915
▁каку	-10916
▁каме	-10917
▁ками	-10918
▁каму	-10919
▁капи	-10920
▁каче	-10921
▁коко	-10922
▁коле	-10923
▁коло	-10924
▁комп	-10925
▁конв	-10926
▁конс	-10927
▁конт	-10928
▁конф	-10929
▁конц	-10930
▁копи	-10931
▁кора	-10932
▁коро	-10933
▁кров	-10934
▁кста	-10935
▁кури	-10936
▁кусо	-10937
▁лабо	-10938
▁лава	-10939
▁лари	-10940
▁лива	-10941
▁лока	-10942
▁лоре	-10943
▁любу	-10944
▁любы	-10945
▁любя	-10946
▁люде	-10947
▁мага	-10948
▁малы	-10949
▁мана	-10950
▁манх	-10951
▁маня	-10952
▁мари	-10953
▁мебе	-10954
▁мень	-10955
▁мест	-10956
▁меся	-10957
▁мето	-10958
▁меха	-10959
▁мила	-10960
▁мило	-10961
▁милу	-10962
▁милы	-10963
▁мину	-10964
▁миро	-10965
▁мист	-10966
▁моем	-10967
▁моск	-10968
▁мост	-10969
▁моти	-10970
▁муда	-10971
▁мужи	-10972
▁мусо	-10973
▁мюнх	-10974
▁наби	-10975
▁набо	-10976
▁наво	-10977
▁наде	-10978
▁наза	-10979
▁назы	-10980
▁наих	-10981
▁нака	-10982
▁нако	-10983
▁нало	-10984
▁нане	-10985
▁напа	-10986
▁напи	-10987
▁напо	-10988
▁наро	-10989
▁нару	-10990
▁наря	-10991
▁наст	-10992
▁насч	-10993
▁нахо	-10994
▁начи	-10995
▁небо	-10996
▁нева	-10997
▁неви	-10998
▁нево	-10999
▁неде	-11000
▁неко	-11001
▁нель	-11002
▁нена	-11003
▁неот	-11004
▁непа	-11005
▁непо	-11006
▁нере	-11007
▁несё	-11008
▁нече	-11009
▁нику	-11010
▁ниче	-11011
▁нище	-11012
▁новы	-11013
▁ножо	-11014
▁нола	-11015
▁носи	-11016
▁нюан	-11017
▁обви	-11018
▁обес	-11019
▁обет	-11020
▁обож	-11021
▁обои	-11022
▁обре	-11023
▁обря	-11024
▁общи	-11025
▁обыч	-11026
▁обыщ	-11027
▁огра	-11028
▁огро	-11029
▁одер	-11030
▁озна	-11031
▁окон	-11032
▁октя	-11033
▁опре	-11034
▁осво	-11035
▁ослу	-11036
▁осуж	-11037
▁отве	-11038
▁отда	-11039
▁отде	-11040
▁отме	-11041
▁отно	-11042
▁отпе	-11043
▁отто	-11044
▁оцен	-11045
▁очка	-11046
▁очни	-11047
▁пайп	-11048
▁папо	-11049
▁парн	-11050
▁паца	-11051
▁пека	-11052
▁пери	-11053
▁пись	-11054
▁побе	-11055
▁пово	-11056
▁пого	-11057
▁подд	-11058
▁поду	-11059
▁подч	-11060
▁поез	-11061
▁поже	-11062
▁пози	-11063
▁пойм	-11064
▁пола	-11065
▁поли	-11066
▁поло	-11067
▁поми	-11068
▁пони	-11069
▁попа	-11070
▁попо	-11071
▁попы	-11072
▁поро	-11073
▁поря	-11074
▁посв	-11075
▁посп	-11076
▁пост	-11077
▁посы	-11078
▁поте	-11079
▁похи	-11080
▁почу	-11081
▁поше	-11082
▁прай	-11083
▁прак	-11084
▁прев	-11085
▁преж	-11086
▁през	-11087
▁прек	-11088
▁преп	-11089
▁прес	-11090
▁прив	-11091
▁приг	-11092
▁прид	-11093
▁приз	-11094
▁прим	-11095
▁прин	-11096
▁прио	-11097
▁прип	-11098
▁приу	-11099
▁приш	-11100
▁прию	-11101
▁прия	-11102
▁проб	-11103
▁пров	-11104
▁прог	-11105
▁прод	-11106
▁прое	-11107
▁прои	-11108
▁прой	-11109
▁прок	-11110
▁пром	-11111
▁проп	-11112
▁прор	-11113
▁прос	-11114
▁прот	-11115
▁проф	-11116
▁прох	-11117
▁проц	-11118
▁проч	-11119
▁прош	-11120
▁прощ	-11121
▁пряч	-11122
▁пули	-11123
▁пяты	-11124
▁разу	-11125
▁райо	-11126
▁рань	-11127
▁раск	-11128
▁расо	-11129
▁раст	-11130
▁реак	-11131
▁ребя	-11132
▁ребё	-11133
▁реги	-11134
▁режи	-11135
▁резю	-11136
▁реин	-11137
▁реко	-11138
▁рели	-11139
▁ресу	-11140
▁реша	-11141
▁рисо	-11142
▁рису	-11143
▁роди	-11144
▁рожа	-11145
▁рука	-11146
▁руко	-11147
▁сади	-11148
▁садо	-11149
▁сажа	-11150
▁свет	-11151
▁свое	-11152
▁связ	-11153
▁свящ	-11154
▁сего	-11155
▁седь	-11156
▁секр	-11157
▁секу	-11158
▁сент	-11159
▁серд	-11160
▁сери	-11161
▁серь	-11162
▁сето	-11163
▁сиди	-11164
▁синя	-11165
▁ситу	-11166
▁слад	-11167
▁служ	-11168
▁смож	-11169
▁смот	-11170
▁собе	-11171
▁соби	-11172
▁собо	-11173
▁собы	-11174
▁сове	-11175
▁совс	-11176
▁соде	-11177
▁сожа	-11178
▁солн	-11179
▁сома	-11180
▁сомн	-11181
▁соот	-11182
▁соре	-11183
▁соса	-11184
▁сост	-11185
▁соци	-11186
▁спол	-11187
▁спря	-11188
▁стан	-11189
▁стек	-11190
▁степ	-11191
▁стои	-11192
▁стоя	-11193
▁стре	-11194
▁стри	-11195
▁студ	-11196
▁судь	-11197
▁суме	-11198
▁сыно	-11199
▁сырь	-11200
▁тагу	-11201
▁такж	-11202
▁таки	-11203
▁тако	-11204
▁таку	-11205
▁твор	-11206
▁твоё	-11207
▁темп	-11208
▁тере	-11209
▁тимо	-11210
▁тобо	-11211
▁това	-11212
▁толч	-11213
▁толь	-11214
▁трах	-11215
▁трол	-11216
▁туво	-11217
▁тыся	-11218
▁тэту	-11219
▁тяже	-11220
▁убий	-11221
▁углу	-11222
▁удер	-11223
▁укро	-11224
▁умре	-11225
▁уско	-11226
▁усло	-11227
▁усту	-11228
▁утро	-11229
▁феде	-11230
▁форм	-11231
▁фрук	-11232
▁хало	-11233
▁хара	-11234
▁ходи	-11235
▁хозя	-11236
▁холо	-11237
▁хоче	-11238
▁целе	-11239
▁цель	-11240
▁цена	-11241
▁цент	-11242
▁част	-11243
▁чело	-11244
▁чемо	-11245
▁чере	-11246
▁четв	-11247
▁четы	-11248
▁чита	-11249
▁чтоб	-11250
▁чужи	-11251
▁шага	-11252
▁шлях	-11253
▁шути	-11254
▁ябло	-11255
▁явля	-11256
/61/12	-11257
1991),	-11258
80/114	-11259
andion	-11260
commen	-11261
counte	-11262
dients	-11263
nknown	-11264
pdated	-11265
rigami	-11266
sually	-11267
tremul	-11268
urrent	-11269
альная	-11270
альной	-11271
альных	-11272
амблеи	-11273
амблея	-11274
амечен	-11275
аннетт	-11276
атации	-11277
бираем	-11278
бление	-11279
бленно	-11280
бодите	-11281
бойдут	-11282
бойный	-11283
борато	-11284
боскре	-11285
бствен	-11286
ванных	-11287
ваться	-11288
ваются	-11289
вающий	-11290
вающих	-11291
ведени	-11292
ведите	-11293
велись	-11294
венная	-11295
венные	-11296
венным	-11297
венных	-11298
венско	-11299
венции	-11300
венция	-11301
верена	-11302
вержен	-11303
верить	-11304
верное	-11305
верным	-11306
версти	-11307
вершат	-11308
видишь	-11309
вилась	-11310
вините	-11311
вистью	-11312
витель	-11313
вителя	-11314
вленно	-11315
вляешь	-11316
вовать	-11317
воисти	-11318
ворила	-11319
ворить	-11320
ворняг	-11321
восход	-11322
вотное	-11323
вотных	-11324
втрака	-11325
вулиру	-11326
вушкам	-11327
вящена	-11328
гально	-11329
гатели	-11330
гаются	-11331
гламен	-11332
гласия	-11333
гласно	-11334
гниешь	-11335
говать	-11336
годняш	-11337
давали	-11338
давить	-11339
дарень	-11340
датель	-11341
дающих	-11342
дверга	-11343
деален	-11344
делала	-11345
делали	-11346
делать	-11347
дельно	-11348
дением	-11349
детели	-11350
детель	-11351
деяние	-11352
деянию	-11353
деяния	-11354
дивиду	-11355
дичный	-11356
длежал	-11357
длежит	-11358
дление	-11359
длении	-11360
дников	-11361
довали	-11362
дозвол	-11363
дствен	-11364
дуктив	-11365
думали	-11366
дующих	-11367
дывать	-11368
ейских	-11369
ействи	-11370
ендлер	-11371
ениров	-11372
ениями	-11373
еногра	-11374
енщине	-11375
енщины	-11376
енькое	-11377
еньора	-11378
еньшат	-11379
еплохо	-11380
ервати	-11381
еревка	-11382
ерение	-11383
ерепол	-11384
ереста	-11385
ермита	-11386
ерства	-11387
ерство	-11388
еталла	-11389
етимся	-11390
еттена	-11391
желают	-11392
женной	-11393
жеству	-11394
живать	-11395
живают	-11396
жидали	-11397
житель	-11398
жность	-11399
завтра	-11400
занные	-11401
занных	-11402
затель	-11403
заться	-11404
зднего	-11405
земпля	-11406
зилось	-11407
зинчик	-11408
зможно	-11409
знаете	-11410
знаешь	-11411
знание	-11412
зовать	-11413
зового	-11414
зульта	-11415
инанси	-11416
истери	-11417
исходи	-11418
итаема	-11419
йфренд	-11420
казала	-11421
казали	-11422
казани	-11423
казате	-11424
казыва	-11425
кански	-11426
катель	-11427
кидает	-11428
ключая	-11429
кмоонн	-11430
койной	-11431
колько	-11432
костью	-11433
кронож	-11434
кругло	-11435
крывай	-11436
курить	-11437
кусила	-11438
лагаем	-11439
ландша	-11440
ланета	-11441
лающие	-11442
лектро	-11443
ленное	-11444
ленных	-11445
ленька	-11446
леньку	-11447
лесооб	-11448
лжения	-11449
ливает	-11450
ликого	-11451
лишком	-11452
ллахом	-11453
лнуйся	-11454
ловека	-11455
ловеку	-11456
ложени	-11457
ложные	-11458
ложных	-11459
ломали	-11460
лопных	-11461
лоупот	-11462
лучить	-11463
лышала	-11464
лышать	-11465
лышите	-11466
лышишь	-11467
льзает	-11468
льзова	-11469
лькает	-11470
льство	-11471
льству	-11472
ляется	-11473
ляться	-11474
мально	-11475
марные	-11476
меется	-11477
мелива	-11478
менишь	-11479
менное	-11480
ментов	-11481
меняет	-11482
мешься	-11483
меются	-11484
минани	-11485
мирает	-11486
мирать	-11487
миться	-11488
можное	-11489
мотрел	-11490
наковы	-11491
налоги	-11492
нально	-11493
начала	-11494
наются	-11495
недель	-11496
никаци	-11497
нилась	-11498
нистер	-11499
нитель	-11500
новали	-11501
новать	-11502
новлен	-11503
ногобо	-11504
носила	-11505
носить	-11506
ностей	-11507
нского	-11508
нчески	-11509
няемся	-11510
няться	-11511
няются	-11512
обходи	-11513
онными	-11514
онстра	-11515
отланд	-11516
падный	-11517
пераци	-11518
питесь	-11519
покоит	-11520
полага	-11521
полнят	-11522
помина	-11523
ппарат	-11524
правед	-11525
правля	-11526
прекра	-11527
престу	-11528
пригла	-11529
пропор	-11530
птизер	-11531
рабско	-11532
рагами	-11533
ражено	-11534
разным	-11535
рактер	-11536
рались	-11537
рально	-11538
ранных	-11539
ранспо	-11540
ранцуз	-11541
раняют	-11542
расиво	-11543
расивы	-11544
раткий	-11545
раться	-11546
рачить	-11547
рвался	-11548
ревать	-11549
редств	-11550
ректор	-11551
ремени	-11552
ретари	-11553
ретаря	-11554
ретить	-11555
рийски	-11556
ристые	-11557
ритель	-11558
риться	-11559
рмации	-11560
рмения	-11561
ровали	-11562
ровать	-11563
ровень	-11564
родное	-11565
родной	-11566
родный	-11567
ронтах	-11568
роприя	-11569
ртному	-11570
ртутью	-11571
рчески	-11572
сается	-11573
сающие	-11574
седани	-11575
седате	-11576
сирова	-11577
сканно	-11578
скован	-11579
словия	-11580
сматри	-11581
смотри	-11582
совест	-11583
сопред	-11584
сорные	-11585
сподин	-11586
сподне	-11587
спокои	-11588
спокой	-11589
спубли	-11590
ссигно	-11591
ссиона	-11592
ссказа	-11593
сследо	-11594
ствова	-11595
стегни	-11596
стерза	-11597
стинно	-11598
стиция	-11599
стника	-11600
стойчи	-11601
стории	-11602
сточно	-11603
стояни	-11604
стоящи	-11605
страда	-11606
стреля	-11607
стрети	-11608
стреча	-11609
стрече	-11610
строби	-11611
ступчи	-11612
судили	-11613
сульта	-11614
талась	-11615
тались	-11616
тарным	-11617
тарных	-11618
таться	-11619
телось	-11620
тельны	-11621
тельст	-11622
тердам	-11623
теряли	-11624
тетной	-11625
тивной	-11626
тивный	-11627
титель	-11628
тлетки	-11629
томсти	-11630
топила	-11631
тостью	-11632
точкой	-11633
тракта	-11634
тракту	-11635
троить	-11636
туации	-11637
туация	-11638
тывать	-11639
учения	-11640
ущение	-11641
фектив	-11642
хаммад	-11643
ходимо	-11644
ходиму	-11645
ходите	-11646
ходить	-11647
ходишь	-11648
ходяще	-11649
хологи	-11650
центов	-11651
центра	-11652
чайная	-11653
чайных	-11654
чайший	-11655
чально	-11656
чарова	-11657
частво	-11658
чаться	-11659
чащему	-11660
чевицы	-11661
чезнет	-11662
чезнов	-11663
челети	-11664
ченной	-11665
ченные	-11666
ченный	-11667
черкну	-11668
чившей	-11669
чинили	-11670
читали	-11671
читают	-11672
шаться	-11673
шаются	-11674
шеломл	-11675
шистый	-11676
шиться	-11677
щается	-11678
щаться	-11679
щенное	-11680
щенных	-11681
ществл	-11682
щество	-11683
ществу	-11684
щрение	-11685
ытался	-11686
ытаюсь	-11687
юджете	-11688
ятству	-11689
արարին	-11690
▁betwe	-11691
▁crawl	-11692
▁every	-11693
▁inmen	-11694
▁locat	-11695
▁monet	-11696
▁subje	-11697
▁thing	-11698
▁авари	-11699
▁адско	-11700
▁анали	-11701
▁анана	-11702
▁балан	-11703
▁барза	-11704
▁барсе	-11705
▁бездо	-11706
▁бейру	-11707
▁бесчи	-11708
▁ближа	-11709
▁брига	-11710
▁броси	-11711
▁будущ	-11712
▁буриа	-11713
▁вежли	-11714
▁верно	-11715
▁верну	-11716
▁взгля	-11717
▁видет	-11718
▁вирту	-11719
▁возду	-11720
▁возмо	-11721
▁возна	-11722
▁возра	-11723
▁восхо	-11724
▁впере	-11725
▁вписа	-11726
▁всевы	-11727
▁всеце	-11728
▁вспыш	-11729
▁выздо	-11730
▁выпол	-11731
▁высту	-11732
▁выход	-11733
▁габри	-11734
▁глухо	-11735
▁говор	-11736
▁грубу	-11737
▁двига	-11738
▁декла	-11739
▁дерев	-11740
▁держа	-11741
▁диску	-11742
▁дозво	-11743
▁долго	-11744
▁допол	-11745
▁доста	-11746
▁драко	-11747
▁друго	-11748
▁жадно	-11749
▁жасми	-11750
▁живет	-11751
▁жизне	-11752
▁загля	-11753
▁задни	-11754
▁заклю	-11755
▁закры	-11756
▁закуп	-11757
▁залез	-11758
▁запре	-11759
▁запро	-11760
▁запры	-11761
▁засви	-11762
▁заслу	-11763
▁заста	-11764
▁звуча	-11765
▁зерка	-11766
▁знако	-11767
▁значи	-11768
▁издер	-11769
▁иност	-11770
▁исход	-11771
▁каждо	-11772
▁кажду	-11773
▁кажды	-11774
▁кибер	-11775
▁клима	-11776
▁клино	-11777
▁когтя	-11778
▁комик	-11779
▁комму	-11780
▁комна	-11781
▁конно	-11782
▁кораб	-11783
▁крово	-11784
▁лаван	-11785
▁ларин	-11786
▁летня	-11787
▁лицем	-11788
▁лучши	-11789
▁людви	-11790
▁матро	-11791
▁медве	-11792
▁милли	-11793
▁мирот	-11794
▁многи	-11795
▁множе	-11796
▁мокро	-11797
▁момен	-11798
▁моста	-11799
▁мужчи	-11800
▁мухам	-11801
▁навод	-11802
▁надет	-11803
▁надое	-11804
▁напол	-11805
▁напри	-11806
▁наско	-11807
▁наста	-11808
▁насти	-11809
▁насто	-11810
▁наход	-11811
▁небре	-11812
▁необя	-11813
▁непос	-11814
▁непри	-11815
▁неско	-11816
▁неспе	-11817
▁несча	-11818
▁нрави	-11819
▁обору	-11820
▁обрат	-11821
▁обучи	-11822
▁объем	-11823
▁оголя	-11824
▁огром	-11825
▁однаж	-11826
▁ореха	-11827
▁особы	-11828
▁остав	-11829
▁остан	-11830
▁остат	-11831
▁остаё	-11832
▁осуще	-11833
▁отвра	-11834
▁отлич	-11835
▁отмен	-11836
▁отплы	-11837
▁охран	-11838
▁очере	-11839
▁парен	-11840
▁патри	-11841
▁пекар	-11842
▁перву	-11843
▁перез	-11844
▁переч	-11845
▁персо	-11846
▁печат	-11847
▁пицце	-11848
▁плати	-11849
▁побра	-11850
▁повод	-11851
▁погод	-11852
▁подар	-11853
▁подби	-11854
▁подве	-11855
▁поджи	-11856
▁подож	-11857
▁подоз	-11858
▁подой	-11859
▁подпи	-11860
▁подру	-11861
▁подст	-11862
▁поезд	-11863
▁позна	-11864
▁пойма	-11865
▁пойми	-11866
▁покаж	-11867
▁показ	-11868
▁покая	-11869
▁покло	-11870
▁полиц	-11871
▁полно	-11872
▁помоч	-11873
▁помощ	-11874
▁понят	-11875
▁пообе	-11876
▁попол	-11877
▁попро	-11878
▁попыт	-11879
▁поряд	-11880
▁посвя	-11881
▁посла	-11882
▁посмо	-11883
▁посте	-11884
▁посто	-11885
▁посту	-11886
▁потер	-11887
▁потря	-11888
▁поэто	-11889
▁праве	-11890
▁правя	-11891
▁прево	-11892
▁превы	-11893
▁предп	-11894
▁преду	-11895
▁предъ	-11896
▁преды	-11897
▁прези	-11898
▁прелю	-11899
▁прест	-11900
▁прива	-11901
▁приво	-11902
▁привы	-11903
▁приду	-11904
▁призы	-11905
▁прило	-11906
▁прима	-11907
▁прина	-11908
▁прине	-11909
▁прини	-11910
▁прино	-11911
▁приня	-11912
▁прира	-11913
▁прист	-11914
▁прису	-11915
▁приум	-11916
▁прише	-11917
▁приши	-11918
▁прият	-11919
▁пробе	-11920
▁прово	-11921
▁прода	-11922
▁продо	-11923
▁проду	-11924
▁проек	-11925
▁произ	-11926
▁промы	-11927
▁пропа	-11928
▁пропи	-11929
▁пропу	-11930
▁проро	-11931
▁проры	-11932
▁проси	-11933
▁прост	-11934
▁прось	-11935
▁проти	-11936
▁прото	-11937
▁прохо	-11938
▁прочи	-11939
▁проща	-11940
▁прямы	-11941
▁прячу	-11942
▁рабоч	-11943
▁разбе	-11944
▁разбо	-11945
▁разго	-11946
▁разде	-11947
▁разли	-11948
▁разме	-11949
▁разни	-11950
▁разно	-11951
▁разра	-11952
▁разре	-11953
▁разум	-11954
▁распа	-11955
▁распи	-11956
▁распо	-11957
▁расхо	-11958
▁реаби	-11959
▁ребен	-11960
▁репро	-11961
▁ресур	-11962
▁роско	-11963
▁рудни	-11964
▁сакво	-11965
▁самми	-11966
▁самоу	-11967
▁сандо	-11968
▁свали	-11969
▁свини	-11970
▁свяжу	-11971
▁связа	-11972
▁свято	-11973
▁сегод	-11974
▁сексу	-11975
▁семья	-11976
▁сеточ	-11977
▁синга	-11978
▁сказо	-11979
▁скуча	-11980
▁слаба	-11981
▁слабе	-11982
▁слабо	-11983
▁слабы	-11984
▁следи	-11985
▁служа	-11986
▁служи	-11987
▁случи	-11988
▁слуша	-11989
▁смета	-11990
▁снима	-11991
▁соблю	-11992
▁собра	-11993
▁совер	-11994
▁содер	-11995
▁солда	-11996
▁сомне	-11997
▁сообщ	-11998
▁сопре	-11999
▁сопро	-12000
▁соста	-12001
▁состо	-12002
▁сотру	-12003
▁социа	-12004
▁спаса	-12005
▁спаси	-12006
▁специ	-12007
▁списо	-12008
▁стади	-12009
▁стано	-12010
▁стара	-12011
▁стары	-12012
▁стать	-12013
▁стето	-12014
▁сторо	-12015
▁ступа	-12016
▁сырье	-12017
▁творя	-12018
▁текущ	-12019
▁терпи	-12020
▁терри	-12021
▁техно	-12022
▁торго	-12023
▁тормо	-12024
▁траги	-12025
▁трево	-12026
▁труди	-12027
▁убежд	-12028
▁убере	-12029
▁убива	-12030
▁уголо	-12031
▁угото	-12032
▁удовл	-12033
▁указа	-12034
▁уколо	-12035
▁урожа	-12036
▁устро	-12037
▁факто	-12038
▁хвата	-12039
▁хвати	-12040
▁хобби	-12041
▁хорош	-12042
▁ченни	-12043
▁четвё	-12044
▁члено	-12045
▁школь	-12046
▁щедро	-12047
▁эйпри	-12048
▁эконо	-12049
/2006/5	-12050
00:03:3	-12051
1/287),	-12052
alendar	-12053
counter	-12054
entries	-12055
revious	-12056
беседни	-12057
бийство	-12058
бираемы	-12059
бираете	-12060
бирался	-12061
бираюсь	-12062
бленное	-12063
блюдала	-12064
боратор	-12065
браться	-12066
бывания	-12067
бычного	-12068
ванного	-12069
вартира	-12070
вающими	-12071
ведение	-12072
ведению	-12073
ведения	-12074
веденно	-12075
ведливо	-12076
ведливы	-12077
венадца	-12078
верение	-12079
верстие	-12080
вершать	-12081
вершить	-12082
верюшку	-12083
ветстви	-12084
ветству	-12085
виданья	-12086
видуаль	-12087
вижения	-12088
винения	-12089
вирован	-12090
водство	-12091
вольные	-12092
волюции	-12093
ворение	-12094
ворится	-12095
вухгоди	-12096
гическо	-12097
глийски	-12098
гляните	-12099
говорим	-12100
дарства	-12101
дарство	-12102
действи	-12103
деление	-12104
деленно	-12105
держащи	-12106
держива	-12107
дествен	-12108
дкостью	-12109
дование	-12110
дования	-12111
дростка	-12112
думался	-12113
ействия	-12114
енеджер	-12115
енераль	-12116
енилась	-12117
енились	-12118
енность	-12119
ентября	-12120
еняется	-12121
еняются	-12122
ерегает	-12123
ерьезно	-12124
етатель	-12125
жайтесь	-12126
жалению	-12127
ждающих	-12128
жженной	-12129
жностей	-12130
зартный	-12131
здорова	-12132
зирован	-12133
зования	-12134
золюции	-12135
зопасно	-12136
ивается	-12137
интегра	-12138
исходит	-12139
итайски	-12140
итаться	-12141
ихудшем	-12142
ймешься	-12143
казания	-12144
кования	-12145
которые	-12146
которых	-12147
кумента	-12148
кушение	-12149
лагаема	-12150
лагаемо	-12151
ландшаф	-12152
ланника	-12153
лейтена	-12154
ленного	-12155
ленькое	-12156
лирован	-12157
литации	-12158
льзовал	-12159
льности	-12160
льность	-12161
люблена	-12162
люшевый	-12163
матрива	-12164
ментиро	-12165
местить	-12166
мещение	-12167
мещении	-12168
минании	-12169
мически	-12170
мическо	-12171
мывался	-12172
навлива	-12173
нергети	-12174
низации	-12175
низация	-12176
нимаешь	-12177
нимание	-12178
ническо	-12179
нования	-12180
нологии	-12181
нология	-12182
ношении	-12183
ношению	-12184
нуешься	-12185
нческие	-12186
общение	-12187
онально	-12188
ператив	-12189
перация	-12190
печения	-12191
писания	-12192
полагаю	-12193
поминаю	-12194
порство	-12195
пределё	-12196
преступ	-12197
пустить	-12198
рабском	-12199
равнимо	-12200
равству	-12201
ражения	-12202
ральный	-12203
регуляр	-12204
редства	-12205
редство	-12206
редству	-12207
ренного	-12208
ретариа	-12209
ретимся	-12210
рийские	-12211
рмально	-12212
рование	-12213
рованно	-12214
родному	-12215
ройного	-12216
роннему	-12217
рошовый	-12218
рудниче	-12219
ружения	-12220
руклина	-12221
рушками	-12222
рующего	-12223
ряжение	-12224
седаний	-12225
седания	-12226
сеивать	-12227
сервати	-12228
сирован	-12229
следили	-12230
сленное	-12231
словиях	-12232
сновали	-12233
спользо	-12234
спорядо	-12235
спослан	-12236
спредел	-12237
ставать	-12238
стается	-12239
станови	-12240
ственни	-12241
ствующи	-12242
стинную	-12243
стников	-12244
стокому	-12245
сточной	-12246
стоянии	-12247
стоянно	-12248
стрелил	-12249
стробио	-12250
ступить	-12251
сударст	-12252
сутстви	-12253
тавлива	-12254
териалы	-12255
тически	-12256
трально	-12257
фициаль	-12258
фически	-12259
формаци	-12260
формули	-12261
хаммада	-12262
ходящих	-12263
чайного	-12264
челетия	-12265
ченными	-12266
чеством	-12267
читаешь	-12268
читайте	-12269
щенного	-12270
ществля	-12271
щущение	-12272
ытались	-12273
ятельно	-12274
ահներին	-12275
մանախագ	-12276
▁2002-2	-12277
▁actual	-12278
▁romand	-12279
▁septem	-12280
▁ассамб	-12281
▁африка	-12282
▁бездом	-12283
▁белесы	-12284
▁благос	-12285
▁блажен	-12286
▁ближай	-12287
▁больша	-12288
▁больши	-12289
▁большо	-12290
▁будуще	-12291
▁вариан	-12292
▁вечери	-12293
▁вздума	-12294
▁винова	-12295
▁возмож	-12296
▁воисти	-12297
▁ворчли	-12298
▁востор	-12299
▁времен	-12300
▁всевыш	-12301
▁всемир	-12302
▁всесто	-12303
▁выбери	-12304
▁выезжа	-12305
▁выполн	-12306
▁вырази	-12307
▁выреза	-12308
▁выруби	-12309
▁выступ	-12310
▁вытащи	-12311
▁выхлоп	-12312
▁голово	-12313
▁голосо	-12314
▁гороши	-12315
▁господ	-12316
▁гражда	-12317
▁делега	-12318
▁детски	-12319
▁детско	-12320
▁доволь	-12321
▁догада	-12322
▁догады	-12323
▁дорога	-12324
▁древне	-12325
▁задоку	-12326
▁залеза	-12327
▁занима	-12328
▁запрет	-12329
▁запрыг	-12330
▁засвет	-12331
▁застре	-12332
▁заточи	-12333
▁заявля	-12334
▁извест	-12335
▁изыска	-12336
▁имеющи	-12337
▁инозем	-12338
▁инстру	-12339
▁интерв	-12340
▁интере	-12341
▁интерн	-12342
▁искуша	-12343
▁канбер	-12344
▁карточ	-12345
▁квитан	-12346
▁колеба	-12347
▁колось	-12348
▁компью	-12349
▁контра	-12350
▁контро	-12351
▁конфли	-12352
▁котора	-12353
▁кошмар	-12354
▁локаль	-12355
▁мальчи	-12356
▁митчел	-12357
▁молоде	-12358
▁молодо	-12359
▁наимен	-12360
▁наказа	-12361
▁налого	-12362
▁написа	-12363
▁насило	-12364
▁насиль	-12365
▁настоя	-12366
▁неверу	-12367
▁невиди	-12368
▁незаме	-12369
▁некото	-12370
▁неправ	-12371
▁облажа	-12372
▁област	-12373
▁обозна	-12374
▁обрадо	-12375
▁обраща	-12376
▁обрета	-12377
▁обсужд	-12378
▁объявл	-12379
▁одержа	-12380
▁опубли	-12381
▁органи	-12382
▁основа	-12383
▁основы	-12384
▁особня	-12385
▁остаем	-12386
▁остала	-12387
▁остали	-12388
▁осужда	-12389
▁отмест	-12390
▁отпеча	-12391
▁очеред	-12392
▁очкари	-12393
▁перево	-12394
▁переда	-12395
▁поведа	-12396
▁повери	-12397
▁повесе	-12398
▁повину	-12399
▁повста	-12400
▁поддер	-12401
▁подопе	-12402
▁подума	-12403
▁пожало	-12404
▁пожалу	-12405
▁позабо	-12406
▁поисти	-12407
▁пойдем	-12408
▁показы	-12409
▁полага	-12410
▁получа	-12411
▁помога	-12412
▁послед	-12413
▁посыла	-12414
▁потреб	-12415
▁правед	-12416
▁практи	-12417
▁превра	-12418
▁предва	-12419
▁предла	-12420
▁предло	-12421
▁предот	-12422
▁предсе	-12423
▁предъя	-12424
▁презид	-12425
▁преодо	-12426
▁препят	-12427
▁пресле	-12428
▁престу	-12429
▁привыч	-12430
▁пригла	-12431
▁призна	-12432
▁призра	-12433
▁прилож	-12434
▁приори	-12435
▁присмо	-12436
▁провер	-12437
▁прокла	-12438
▁прокля	-12439
▁просле	-12440
▁просни	-12441
▁прости	-12442
▁просту	-12443
▁профес	-12444
▁проход	-12445
▁процес	-12446
▁прячем	-12447
▁рабочу	-12448
▁разуме	-12449
▁раскра	-12450
▁распах	-12451
▁расска	-12452
▁рассма	-12453
▁расста	-12454
▁рассту	-12455
▁рассчи	-12456
▁ребено	-12457
▁режисс	-12458
▁родите	-12459
▁роттер	-12460
▁самодо	-12461
▁самоот	-12462
▁священ	-12463
▁сделан	-12464
▁систем	-12465
▁сложне	-12466
▁смерте	-12467
▁совеща	-12468
▁сообща	-12469
▁сопред	-12470
▁специа	-12471
▁спраши	-12472
▁ссылая	-12473
▁счасть	-12474
▁текста	-12475
▁тексто	-12476
▁трудно	-12477
▁уголов	-12478
▁удосто	-12479
▁узнава	-12480
▁уилфор	-12481
▁умудри	-12482
▁устрой	-12483
▁уступа	-12484
▁участо	-12485
▁фотога	-12486
▁фотосе	-12487
▁хороши	-12488
▁христи	-12489
▁частно	-12490
▁чемода	-12491
▁четвёр	-12492
▁экспер	-12493
▁эксплу	-12494
preciate	-12495
radients	-12496
urrently	-12497
vailable	-12498
бавилась	-12499
батывать	-12500
бираемым	-12501
боскребы	-12502
бренного	-12503
варитель	-12504
вательно	-12505
ведением	-12506
ведливых	-12507
вериться	-12508
веровали	-12509
веровать	-12510
вершение	-12511
видетели	-12512
винилась	-12513
внования	-12514
вободите	-12515
возможно	-12516
воленных	-12517
вориться	-12518
ворчески	-12519
восходна	-12520
вращения	-12521
вулирует	-12522
вычайная	-12523
вычайных	-12524
вященное	-12525
гинально	-12526
гительно	-12527
гламента	-12528
говорить	-12529
граничен	-12530
двигаеть	-12531
действие	-12532
действия	-12533
дельного	-12534
динаковы	-12535
динствен	-12536
диовизуа	-12537
дительно	-12538
докурить	-12539
должение	-12540
должения	-12541
дусматри	-12542
еможение	-12543
емонстра	-12544
енировки	-12545
енографи	-12546
ережения	-12547
ерьезных	-12548
ждествен	-12549
женились	-12550
жествует	-12551
жительно	-12552
зательно	-12553
зволения	-12554
здоровая	-12555
земпляры	-12556
знакомим	-12557
зорвался	-12558
зуальной	-12559
имическо	-12560
итайский	-12561
казатель	-12562
казывает	-12563
клонение	-12564
колдован	-12565
комиться	-12566
кончания	-12567
кращении	-12568
ксирован	-12569
лаждение	-12570
лантации	-12571
легально	-12572
лександр	-12573
личество	-12574
лнуешься	-12575
луждение	-12576
лученные	-12577
лушаться	-12578
льзовать	-12579
льствуют	-12580
мательно	-12581
менилась	-12582
менишься	-12583
меняется	-12584
мительно	-12585
мических	-12586
можность	-12587
мотрение	-12588
надлежал	-12589
надлежит	-12590
никацион	-12591
нитарным	-12592
нитарных	-12593
новались	-12594
нравится	-12595
нхеттена	-12596
олновать	-12597
ональный	-12598
оружения	-12599
отвержен	-12600
подверга	-12601
полнения	-12602
полняемо	-12603
ппозиции	-12604
праведли	-12605
приимным	-12606
противля	-12607
равление	-12608
ранспорт	-12609
ребление	-12610
реждения	-12611
резвычай	-12612
ровления	-12613
рудников	-12614
севышний	-12615
седатель	-12616
сихологи	-12617
скованно	-12618
совались	-12619
ссказать	-12620
ставника	-12621
ственных	-12622
ственско	-12623
ствление	-12624
ствовали	-12625
ствующих	-12626
стегните	-12627
степенно	-12628
стерства	-12629
стерство	-12630
стижения	-12631
сторожны	-12632
сточного	-12633
стоянную	-12634
стоятель	-12635
стоящему	-12636
страдали	-12637
стрелить	-12638
струмент	-12639
сутствие	-12640
сьменное	-12641
тические	-12642
тических	-12643
томстить	-12644
тывается	-12645
уманитар	-12646
фические	-12647
фических	-12648
формации	-12649
хищенных	-12650
чательно	-12651
черкнули	-12652
чившейся	-12653
чинаются	-12654
чтожение	-12655
шительно	-12656
шленного	-12657
ществует	-12658
является	-12659
ятельные	-12660
ятностей	-12661
▁everyth	-12662
▁аналоги	-12663
▁ассигно	-12664
▁африкан	-12665
▁барсело	-12666
▁беспоря	-12667
▁благода	-12668
▁благопо	-12669
▁большин	-12670
▁возвращ	-12671
▁воздаст	-12672
▁вопроса	-12673
▁вопросо	-12674
▁выпуска	-12675
▁высочай	-12676
▁вытаски	-12677
▁выцвета	-12678
▁деклара	-12679
▁добросо	-12680
▁докладо	-12681
▁достато	-12682
▁жестоко	-12683
▁забасто	-12684
▁заплати	-12685
▁запрети	-12686
▁заслужи	-12687
▁застави	-12688
▁злоупот	-12689
▁знамени	-12690
▁издержа	-12691
▁икронож	-12692
▁интерне	-12693
▁коллега	-12694
▁консуль	-12695
▁кормили	-12696
▁кровото	-12697
▁лавандо	-12698
▁ландшаф	-12699
▁лейтена	-12700
▁ликвида	-12701
▁любодей	-12702
▁магазин	-12703
▁многобо	-12704
▁мужчина	-12705
▁наверня	-12706
▁навреди	-12707
▁наполни	-12708
▁направл	-12709
▁находят	-12710
▁негосте	-12711
▁необяза	-12712
▁неотлож	-12713
▁неправи	-12714
▁обитате	-12715
▁объедин	-12716
▁операци	-12717
▁особняч	-12718
▁оставши	-12719
▁отплати	-12720
▁отравля	-12721
▁отражен	-12722
▁ошеломл	-12723
▁палести	-12724
▁перезво	-12725
▁перепол	-12726
▁переста	-12727
▁подбира	-12728
▁подгота	-12729
▁поднима	-12730
▁подозре	-12731
▁подстре	-12732
▁пожалуй	-12733
▁позабот	-12734
▁позволи	-12735
▁позволя	-12736
▁пополни	-12737
▁последу	-12738
▁послуша	-12739
▁посмотр	-12740
▁поступа	-12741
▁потряса	-12742
▁превыша	-12743
▁предлож	-12744
▁предост	-12745
▁предпри	-12746
▁предыду	-12747
▁прекрас	-12748
▁прелюбо	-12749
▁преодол	-12750
▁преступ	-12751
▁привети	-12752
▁приводи	-12753
▁пригото	-12754
▁придума	-12755
▁призыва	-12756
▁применя	-12757
▁прирази	-12758
▁пристре	-12759
▁програм	-12760
▁проекта	-12761
▁произно	-12762
▁пропита	-12763
▁проходи	-12764
▁процеду	-12765
▁проясни	-12766
▁разбегу	-12767
▁разбога	-12768
▁развити	-12769
▁развиты	-12770
▁разреши	-12771
▁расписа	-12772
▁рассвет	-12773
▁реактив	-12774
▁рекомен	-12775
▁самосто	-12776
▁секундо	-12777
▁сестрен	-12778
▁сингапу	-12779
▁согласи	-12780
▁сознава	-12781
▁сомнева	-12782
▁состояв	-12783
▁сотвори	-12784
▁справля	-12785
▁станови	-12786
▁становя	-12787
▁стрипти	-12788
▁телефон	-12789
▁терпимо	-12790
▁террито	-12791
▁уберечь	-12792
▁уговори	-12793
▁удовлет	-12794
▁указыва	-12795
▁успокой	-12796
▁устойчи	-12797
▁участво	-12798
▁финанси	-12799
▁фотогра	-12800
▁француз	-12801
▁характе	-12802
▁харконн	-12803
▁чувству	-12804
▁шотланд	-12805
▁экономи	-12806
▁эксплуа	-12807
▁электро	-12808
00:03:33)	-12809
билитации	-12810
бираешься	-12811
блуждение	-12812
блуждения	-12813
блюдением	-12814
веденного	-12815
вергаются	-12816
ворческих	-12817
вратитель	-12818
вствовать	-12819
вычайного	-12820
глашаются	-12821
граждение	-12822
деральный	-12823
дуктивный	-12824
думывался	-12825
енавистью	-12826
енерально	-12827
еспечение	-12828
еспечения	-12829
жительный	-12830
каиваются	-12831
клоняемся	-12832
клоняются	-12833
ководство	-12834
ктические	-12835
ледование	-12836
лесообраз	-12837
лизирован	-12838
лицейских	-12839
логическо	-12840
менитость	-12841
мничества	-12842
можностей	-12843
мулирован	-12844
навливает	-12845
неможение	-12846
нического	-12847
ответстви	-12848
ответству	-12849
полнитель	-12850
посредств	-12851
правление	-12852
правления	-12853
пропорции	-12854
пряталась	-12855
ражайтесь	-12856
ражениями	-12857
ребностей	-12858
ребностью	-12859
резговать	-12860
рождающих	-12861
роприятия	-12862
рудования	-12863
скользает	-12864
сновались	-12865
спокоится	-12866
ставителя	-12867
ставления	-12868
становила	-12869
стерегает	-12870
стерзание	-12871
ступление	-12872
ступлений	-12873
ступчивую	-12874
сударства	-12875
сударство	-12876
сячелетия	-12877
тивирован	-12878
тральному	-12879
фективный	-12880
ханическо	-12881
ходящихся	-12882
чаиваются	-12883
чищенного	-12884
чреждения	-12885
նախարարին	-12886
▁благосло	-12887
▁восторже	-12888
▁генераль	-12889
▁господне	-12890
▁двенадца	-12891
▁двухгоди	-12892
▁завтрака	-12893
▁заключен	-12894
▁заседани	-12895
▁иностран	-12896
▁исчезнов	-12897
▁компьюте	-12898
▁маленька	-12899
▁маленьку	-12900
▁многобож	-12901
▁наставля	-12902
▁несчасть	-12903
▁обновлен	-12904
▁образова	-12905
▁объектив	-12906
▁операция	-12907
▁определё	-12908
▁осмелива	-12909
▁основыва	-12910
▁останете	-12911
▁отказыва	-12912
▁палестин	-12913
▁повесели	-12914
▁подготов	-12915
▁поддержа	-12916
▁поддержи	-12917
▁позавтра	-12918
▁показыва	-12919
▁положени	-12920
▁поминани	-12921
▁понедель	-12922
▁праведни	-12923
▁преврати	-12924
▁предлага	-12925
▁предприя	-12926
▁председа	-12927
▁преодоле	-12928
▁преследо	-12929
▁пригодно	-12930
▁приумень	-12931
▁программ	-12932
▁продолжа	-12933
▁происход	-12934
▁проклады	-12935
▁разногла	-12936
▁расступи	-12937
▁рассчита	-12938
▁результа	-12939
▁республи	-12940
▁самоубий	-12941
▁сегодняш	-12942
▁сексуаль	-12943
▁секундоч	-12944
▁следующи	-12945
▁собствен	-12946
▁совмести	-12947
▁составля	-12948
▁специаль	-12949
▁спрашива	-12950
▁средства	-12951
▁существо	-12952
▁существу	-12953
▁ультрабо	-12954
▁упорство	-12955
▁установи	-12956
▁фотогале	-12957
▁энергети	-12958
берпреступ	-12959
беседникам	-12960
бораторных	-12961
видуальный	-12962
гиональный	-12963
глубленное	-12964
говориться	-12965
двигаеться	-12966
держащиеся	-12967
добренного	-12968
етательный	-12969
зательства	-12970
зволенного	-12971
зопасности	-12972
интеграции	-12973
кательства	-12974
комендации	-12975
комендацию	-12976
литических	-12977
лиятельные	-12978
любодеяние	-12979
любодеянию	-12980
любодеяния	-12981
матические	-12982
менитостью	-12983
мечательно	-12984
муникацион	-12985
мышленного	-12986
нимательно	-12987
правляется	-12988
пределение	-12989
пределенно	-12990
публиковал	-12991
ревнования	-12992
ремительно	-12993
ровательно	-12994
сервативен	-12995
споряжение	-12996
ставителям	-12997
ставниками	-12998
стаивается	-12999
стаиваются	-13000
ственников	-13001
стережения	-13002
стробиолог	-13003
струментов	-13004
сценировки	-13005
счисленное	-13006
фигительно	-13007
фиксирован	-13008
фициальных	-13009
ффективный	-13010
ханическое	-13011
циональной	-13012
ществление	-13013
▁благополу	-13014
▁всесторон	-13015
▁вытаскива	-13016
▁государст	-13017
▁демонстра	-13018
▁деятельно	-13019
▁документа	-13020
▁засвидете	-13021
▁здравству	-13022
▁информаци	-13023
▁консульта	-13024
▁контракта	-13025
▁кровоточа	-13026
▁междунаро	-13027
▁осуществл	-13028
▁переводчи	-13029
▁переполня	-13030
▁правитель	-13031
▁предотвра	-13032
▁представл	-13033
▁приоритет	-13034
▁присмотри	-13035
▁происходя	-13036
▁психологи	-13037
▁разрабаты	-13038
▁рассмотре	-13039
▁собираете	-13040
▁состоявши	-13041
▁справедли	-13042
▁транспорт	-13043
▁убежденно	-13044
▁фотографи	-13045
▁химическо	-13046
▁համանախագ	-13047
варительным	-13048
вратительна	-13049
встанческие	-13050
графические	-13051
графических	-13052
динственная	-13053
дительность	-13054
документиро	-13055
жительность	-13056
замеченными	-13057
здоровления	-13058
знакомиться	-13059
казательств	-13060
матривается	-13061
награждение	-13062
отверженные	-13063
приятностей	-13064
противляясь	-13065
регулярного	-13066
ссиональной	-13067
стоятельным	-13068
чувствовать	-13069
язательства	-13070
▁аудиовизуа	-13071
▁благодарно	-13072
▁благослови	-13073
▁выполняемо	-13074
▁генерально	-13075
▁использова	-13076
▁негостепри	-13077
▁необходиму	-13078
▁осуществля	-13079
▁переставля	-13080
▁познакомим	-13081
▁предоставл	-13082
▁предполага	-13083
▁представля	-13084
▁препятству	-13085
▁приветству	-13086
▁решительно	-13087
▁рождествен	-13088
▁самодоволь	-13089
▁секретариа	-13090
▁состоявшей	-13091
▁сотрудниче	-13092
▁технология	-13093
▁удовлетвор	-13094
▁удостовери	-13095
▁учреждения	-13096
держивающего	-13097
кономических	-13098
мулированных	-13099
печатывается	-13100
полнительные	-13101
председатель	-13102
председателя	-13103
продуктивный	-13104
публикования	-13105
ротворческих	-13106
циализирован	-13107
▁благодарень	-13108
▁возвращайте	-13109
▁злоупотребл	-13110
▁любодейство	-13111
▁мотивирован	-13112
▁насильствен	-13113
▁предоставля	-13114
▁предприятия	-13115
▁предусматри	-13116
▁развивающих	-13117
▁соответстви	-13118
▁ультрабольш	-13119
▁финансирова	-13120
▁целесообраз	-13121
посредственно	-13122
▁государствен	-13123
▁представител	-13124
▁развивающими	-13125
▁соответствую	-13126
▁стремительно	-13127
▁համանախագահն	-13128
берпреступника	-13129
видетельствуют	-13130
муникационными	-13131
стрекательства	-13132
документировать	-13133
▁соответствующи	-13134
циализированного	-13135
▁	-13136
о	-13137
е	-13138
а	-13139
т	-13140
и	-13141
н	-13142
с	-13143
р	-13144
в	-13145
л	-13146
м	-13147
д	-13148
.	-13149
к	-13150
п	-13151
у	-13152
я	-13153
ы	-13154
ь	-13155
,	-13156
б	-13157
ч	-13158
г	-13159
з	-13160
й	-13161
ж	-13162
х	-13163
ш	-13164
ю	-13165
-	-13166
?	-13167
э	-13168
ц	-13169
щ	-13170
e	-13171
t	-13172
o	-13173
!	-13174
i	-13175
1	-13176
0	-13177
a	-13178
n	-13179
m	-13180
s	-13181
ф	-13182
2	-13183
:	-13184
p	-13185
h	-13186
ё	-13187
c	-13188
"	-13189
5	-13190
w	-13191
r	-13192
[	-13193
u	-13194
)	-13195
3	-13196
(	-13197
]	-13198
/	-13199
9	-13200
d	-13201
l	-13202
6	-13203
8	-13204
y	-13205
ա	-13206
4	-13207
b	-13208
g	-13209
7	-13210
ъ	-13211
—	-13212
ն	-13213
f	-13214
k	-13215
v	-13216
»	-13217
ի	-13218
ր	-13219
'	-13220
j	-13221
x	-13222
«	-13223
;	-13224
*	-13225
ե	-13226
հ	-13227
+	-13228
խ	-13229
#	-13230
ќ	-13231
գ	-13232
մ	-13233
%	-13234
=	-13235
@	-13236
\	-13237
°	-13238
բ	-13239
դ	-13240
կ	-13241
